#include "cat_detect_model_data.h"

alignas(8) const unsigned char g_cat_detect_model_data[] = {
  0x1c, 0x00, 0x00, 0x00, 0x54, 0x46, 0x4c, 0x33, 0x14, 0x00, 0x20, 0x00, 
  0x1c, 0x00, 0x18, 0x00, 0x14, 0x00, 0x10, 0x00, 0x0c, 0x00, 0x00, 0x00, 
  0x08, 0x00, 0x04, 0x00, 0x14, 0x00, 0x00, 0x00, 0x1c, 0x00, 0x00, 0x00, 
  0x94, 0x00, 0x00, 0x00, 0x14, 0x01, 0x00, 0x00, 0x7c, 0x12, 0x00, 0x00, 
  0x8c, 0x12, 0x00, 0x00, 0x44, 0x37, 0x00, 0x00, 0x03, 0x00, 0x00, 0x00, 
  0x01, 0x00, 0x00, 0x00, 0x10, 0x00, 0x00, 0x00, 0x00, 0x00, 0x0a, 0x00, 
  0x10, 0x00, 0x0c, 0x00, 0x08, 0x00, 0x04, 0x00, 0x0a, 0x00, 0x00, 0x00, 
  0x0c, 0x00, 0x00, 0x00, 0x1c, 0x00, 0x00, 0x00, 0x3c, 0x00, 0x00, 0x00, 
  0x0f, 0x00, 0x00, 0x00, 0x73, 0x65, 0x72, 0x76, 0x69, 0x6e, 0x67, 0x5f, 
  0x64, 0x65, 0x66, 0x61, 0x75, 0x6c, 0x74, 0x00, 0x01, 0x00, 0x00, 0x00, 
  0x04, 0x00, 0x00, 0x00, 0x6c, 0xff, 0xff, 0xff, 0x24, 0x00, 0x00, 0x00, 
  0x04, 0x00, 0x00, 0x00, 0x08, 0x00, 0x00, 0x00, 0x6f, 0x75, 0x74, 0x70, 
  0x75, 0x74, 0x5f, 0x30, 0x00, 0x00, 0x00, 0x00, 0x01, 0x00, 0x00, 0x00, 
  0x04, 0x00, 0x00, 0x00, 0x4e, 0xed, 0xff, 0xff, 0x04, 0x00, 0x00, 0x00, 
  0x0b, 0x00, 0x00, 0x00, 0x69, 0x6e, 0x70, 0x75, 0x74, 0x5f, 0x6c, 0x61, 
  0x79, 0x65, 0x72, 0x00, 0x03, 0x00, 0x00, 0x00, 0x5c, 0x00, 0x00, 0x00, 
  0x2c, 0x00, 0x00, 0x00, 0x04, 0x00, 0x00, 0x00, 0xb8, 0xff, 0xff, 0xff, 
  0x28, 0x00, 0x00, 0x00, 0x04, 0x00, 0x00, 0x00, 0x13, 0x00, 0x00, 0x00, 
  0x43, 0x4f, 0x4e, 0x56, 0x45, 0x52, 0x53, 0x49, 0x4f, 0x4e, 0x5f, 0x4d, 
  0x45, 0x54, 0x41, 0x44, 0x41, 0x54, 0x41, 0x00, 0xdc, 0xff, 0xff, 0xff, 
  0x27, 0x00, 0x00, 0x00, 0x04, 0x00, 0x00, 0x00, 0x13, 0x00, 0x00, 0x00, 
  0x6d, 0x69, 0x6e, 0x5f, 0x72, 0x75, 0x6e, 0x74, 0x69, 0x6d, 0x65, 0x5f, 
  0x76, 0x65, 0x72, 0x73, 0x69, 0x6f, 0x6e, 0x00, 0x08, 0x00, 0x0c, 0x00, 
  0x08, 0x00, 0x04, 0x00, 0x08, 0x00, 0x00, 0x00, 0x26, 0x00, 0x00, 0x00, 
  0x04, 0x00, 0x00, 0x00, 0x13, 0x00, 0x00, 0x00, 0x6d, 0x69, 0x6e, 0x5f, 
  0x72, 0x75, 0x6e, 0x74, 0x69, 0x6d, 0x65, 0x5f, 0x76, 0x65, 0x72, 0x73, 
  0x69, 0x6f, 0x6e, 0x00, 0x29, 0x00, 0x00, 0x00, 0x64, 0x11, 0x00, 0x00, 
  0x5c, 0x11, 0x00, 0x00, 0x44, 0x11, 0x00, 0x00, 0x2c, 0x11, 0x00, 0x00, 
  0x9c, 0x10, 0x00, 0x00, 0x8c, 0x0f, 0x00, 0x00, 0x7c, 0x07, 0x00, 0x00, 
  0x4c, 0x07, 0x00, 0x00, 0x1c, 0x07, 0x00, 0x00, 0x8c, 0x06, 0x00, 0x00, 
  0x7c, 0x04, 0x00, 0x00, 0x2c, 0x04, 0x00, 0x00, 0x8c, 0x03, 0x00, 0x00, 
  0x6c, 0x03, 0x00, 0x00, 0x4c, 0x03, 0x00, 0x00, 0xfc, 0x02, 0x00, 0x00, 
  0x6c, 0x02, 0x00, 0x00, 0x3c, 0x02, 0x00, 0x00, 0xe4, 0x01, 0x00, 0x00, 
  0xcc, 0x01, 0x00, 0x00, 0xb4, 0x01, 0x00, 0x00, 0x84, 0x01, 0x00, 0x00, 
  0x2c, 0x01, 0x00, 0x00, 0x24, 0x01, 0x00, 0x00, 0x1c, 0x01, 0x00, 0x00, 
  0x14, 0x01, 0x00, 0x00, 0x0c, 0x01, 0x00, 0x00, 0x04, 0x01, 0x00, 0x00, 
  0xfc, 0x00, 0x00, 0x00, 0xf4, 0x00, 0x00, 0x00, 0xec, 0x00, 0x00, 0x00, 
  0xe4, 0x00, 0x00, 0x00, 0xdc, 0x00, 0x00, 0x00, 0xd4, 0x00, 0x00, 0x00, 
  0xcc, 0x00, 0x00, 0x00, 0xc4, 0x00, 0x00, 0x00, 0xbc, 0x00, 0x00, 0x00, 
  0xb4, 0x00, 0x00, 0x00, 0x94, 0x00, 0x00, 0x00, 0x74, 0x00, 0x00, 0x00, 
  0x04, 0x00, 0x00, 0x00, 0x92, 0xee, 0xff, 0xff, 0x04, 0x00, 0x00, 0x00, 
  0x60, 0x00, 0x00, 0x00, 0x0c, 0x00, 0x00, 0x00, 0x08, 0x00, 0x0e, 0x00, 
  0x08, 0x00, 0x04, 0x00, 0x08, 0x00, 0x00, 0x00, 0x10, 0x00, 0x00, 0x00, 
  0x28, 0x00, 0x00, 0x00, 0x00, 0x00, 0x06, 0x00, 0x08, 0x00, 0x04, 0x00, 
  0x06, 0x00, 0x00, 0x00, 0x04, 0x00, 0x00, 0x00, 0x01, 0x00, 0x00, 0x00, 
  0xeb, 0x03, 0x00, 0x00, 0x0c, 0x00, 0x18, 0x00, 0x14, 0x00, 0x10, 0x00, 
  0x0c, 0x00, 0x04, 0x00, 0x0c, 0x00, 0x00, 0x00, 0x0b, 0x53, 0xba, 0x35, 
  0x46, 0xee, 0xb0, 0xc0, 0x02, 0x00, 0x00, 0x00, 0x02, 0x00, 0x00, 0x00, 
  0x04, 0x00, 0x00, 0x00, 0x06, 0x00, 0x00, 0x00, 0x32, 0x2e, 0x31, 0x39, 
  0x2e, 0x30, 0x00, 0x00, 0xfe, 0xee, 0xff, 0xff, 0x04, 0x00, 0x00, 0x00, 
  0x10, 0x00, 0x00, 0x00, 0x00, 0x00, 0x00, 0x00, 0x00, 0x00, 0x00, 0x00, 
  0x00, 0x00, 0x00, 0x00, 0x00, 0x00, 0x00, 0x00, 0x1a, 0xef, 0xff, 0xff, 
  0x04, 0x00, 0x00, 0x00, 0x10, 0x00, 0x00, 0x00, 0x31, 0x2e, 0x31, 0x34, 
  0x2e, 0x30, 0x00, 0x00, 0x00, 0x00, 0x00, 0x00, 0x00, 0x00, 0x00, 0x00, 
  0xe4, 0xcb, 0xff, 0xff, 0xe8, 0xcb, 0xff, 0xff, 0xec, 0xcb, 0xff, 0xff, 
  0xf0, 0xcb, 0xff, 0xff, 0xf4, 0xcb, 0xff, 0xff, 0xf8, 0xcb, 0xff, 0xff, 
  0xfc, 0xcb, 0xff, 0xff, 0x00, 0xcc, 0xff, 0xff, 0x04, 0xcc, 0xff, 0xff, 
  0x08, 0xcc, 0xff, 0xff, 0x0c, 0xcc, 0xff, 0xff, 0x10, 0xcc, 0xff, 0xff, 
  0x14, 0xcc, 0xff, 0xff, 0x18, 0xcc, 0xff, 0xff, 0x1c, 0xcc, 0xff, 0xff, 
  0x72, 0xef, 0xff, 0xff, 0x04, 0x00, 0x00, 0x00, 0x48, 0x00, 0x00, 0x00, 
  0xad, 0xdf, 0xc2, 0x30, 0x90, 0xe6, 0x2a, 0x7f, 0x6c, 0x7f, 0x41, 0xc3, 
  0x5f, 0x5e, 0xa5, 0x0f, 0x0b, 0x54, 0xd1, 0xd5, 0x0e, 0x7f, 0x62, 0xcd, 
  0xc9, 0x21, 0xab, 0x5d, 0x7f, 0xb0, 0x52, 0x63, 0xf5, 0x89, 0x92, 0x8e, 
  0x2e, 0x89, 0x17, 0xdc, 0x7f, 0xe8, 0x8a, 0x15, 0x06, 0x42, 0x35, 0x43, 
  0xc6, 0xbd, 0xed, 0xc3, 0x81, 0x70, 0x42, 0x29, 0xdb, 0x7f, 0xd0, 0xa6, 
  0x92, 0x2c, 0x5b, 0x81, 0xa6, 0x14, 0xc9, 0x5f, 0x4c, 0xcb, 0x78, 0x31, 
  0xc6, 0xef, 0xff, 0xff, 0x04, 0x00, 0x00, 0x00, 0x20, 0x00, 0x00, 0x00, 
  0xcf, 0x26, 0x00, 0x00, 0x83, 0xeb, 0xff, 0xff, 0xdd, 0x01, 0x00, 0x00, 
  0x32, 0xed, 0xff, 0xff, 0xfd, 0x23, 0x00, 0x00, 0xac, 0x17, 0x00, 0x00, 
  0x21, 0x18, 0x00, 0x00, 0x9b, 0xfd, 0xff, 0xff, 0xf2, 0xef, 0xff, 0xff, 
  0x04, 0x00, 0x00, 0x00, 0x08, 0x00, 0x00, 0x00, 0x1a, 0xa9, 0x7f, 0x5d, 
  0x58, 0x38, 0xf5, 0x16, 0x06, 0xf0, 0xff, 0xff, 0x04, 0x00, 0x00, 0x00, 
  0x08, 0x00, 0x00, 0x00, 0xf5, 0xb5, 0x75, 0x6f, 0x23, 0x3b, 0x80, 0x2f, 
  0x1a, 0xf0, 0xff, 0xff, 0x04, 0x00, 0x00, 0x00, 0x48, 0x00, 0x00, 0x00, 
  0x83, 0xdb, 0xe8, 0x2b, 0xe1, 0x07, 0x23, 0x3c, 0xdc, 0x49, 0x09, 0xef, 
  0xe4, 0x2e, 0x7f, 0x70, 0x03, 0xd8, 0x81, 0x7f, 0xab, 0x52, 0x14, 0x4e, 
  0x12, 0x83, 0x94, 0x13, 0x33, 0x8c, 0x22, 0xf1, 0xeb, 0x81, 0xa7, 0x65, 
  0x5c, 0xb3, 0x04, 0x7f, 0x81, 0x25, 0xfd, 0x11, 0xf9, 0xc9, 0x0b, 0x1f, 
  0x1a, 0x8f, 0xc3, 0x07, 0xdc, 0x81, 0x58, 0x41, 0x86, 0xb1, 0xaa, 0x4c, 
  0x9c, 0x92, 0x0d, 0x5f, 0xe9, 0x99, 0xee, 0x01, 0x81, 0xae, 0x1d, 0x76, 
  0x6e, 0xf0, 0xff, 0xff, 0x04, 0x00, 0x00, 0x00, 0x20, 0x00, 0x00, 0x00, 
  0x00, 0x00, 0x00, 0x00, 0x00, 0x00, 0x00, 0x00, 0x00, 0x00, 0x00, 0x00, 
  0x00, 0x00, 0x00, 0x00, 0x00, 0x00, 0x00, 0x00, 0x00, 0x00, 0x00, 0x00, 
  0x00, 0x00, 0x00, 0x00, 0x00, 0x00, 0x00, 0x00, 0x9a, 0xf0, 0xff, 0xff, 
  0x04, 0x00, 0x00, 0x00, 0x80, 0x00, 0x00, 0x00, 0x0d, 0x23, 0x1b, 0xb9, 
  0xf4, 0xea, 0x11, 0x7f, 0xcd, 0xc6, 0x58, 0x32, 0x81, 0x1f, 0xb2, 0x9f, 
  0x7c, 0xff, 0x18, 0x89, 0x81, 0xda, 0xa8, 0x4d, 0xc8, 0x6a, 0x82, 0xf0, 
  0x81, 0xcd, 0x90, 0x23, 0x51, 0x42, 0x7f, 0x22, 0xba, 0x14, 0x03, 0x39, 
  0xbe, 0x07, 0x3c, 0x1e, 0x2f, 0x7f, 0x9d, 0x1c, 0xf2, 0x91, 0x19, 0x2c, 
  0x51, 0x7c, 0x7f, 0xbc, 0x01, 0x2f, 0xda, 0x32, 0x81, 0xdf, 0x40, 0x67, 
  0x2c, 0x6f, 0xf7, 0x8a, 0x81, 0xa8, 0xf0, 0x54, 0xd0, 0x7d, 0xb6, 0xd3, 
  0xbd, 0xd8, 0x7f, 0x3e, 0xad, 0x78, 0x81, 0xfb, 0x0b, 0x4c, 0x44, 0x92, 
  0x81, 0x0b, 0x2a, 0x5d, 0x42, 0x20, 0x25, 0xd5, 0x21, 0x0a, 0x00, 0x0a, 
  0xf1, 0xdb, 0x2f, 0x81, 0x54, 0xf5, 0x35, 0x7f, 0xf5, 0xa5, 0xd5, 0x9f, 
  0xdb, 0x81, 0x34, 0xd3, 0x28, 0xc2, 0x76, 0xff, 0xf9, 0x6b, 0xcd, 0xd8, 
  0x5a, 0x7f, 0xb4, 0xfb, 0x26, 0xf1, 0xff, 0xff, 0x04, 0x00, 0x00, 0x00, 
  0x40, 0x00, 0x00, 0x00, 0xf5, 0x00, 0x00, 0x00, 0xfc, 0xfe, 0xff, 0xff, 
  0xe7, 0xff, 0xff, 0xff, 0x9e, 0xff, 0xff, 0xff, 0xcf, 0xff, 0xff, 0xff, 
  0x38, 0xff, 0xff, 0xff, 0xa9, 0xff, 0xff, 0xff, 0xf6, 0xff, 0xff, 0xff, 
  0xf7, 0xff, 0xff, 0xff, 0x5e, 0x01, 0x00, 0x00, 0x67, 0xff, 0xff, 0xff, 
  0xd8, 0xff, 0xff, 0xff, 0x6d, 0xff, 0xff, 0xff, 0x69, 0xff, 0xff, 0xff, 
  0x24, 0xff, 0xff, 0xff, 0xcd, 0x00, 0x00, 0x00, 0x72, 0xf1, 0xff, 0xff, 
  0x04, 0x00, 0x00, 0x00, 0x10, 0x00, 0x00, 0x00, 0xfb, 0x63, 0x13, 0xc9, 
  0x14, 0x56, 0xcf, 0x03, 0xc2, 0x16, 0xd9, 0x7f, 0x53, 0x1f, 0xd2, 0xf4, 
  0x8e, 0xf1, 0xff, 0xff, 0x04, 0x00, 0x00, 0x00, 0x10, 0x00, 0x00, 0x00, 
  0xe1, 0x24, 0xe1, 0xd6, 0xc9, 0xb0, 0x9b, 0xf1, 0xd9, 0xa4, 0xbc, 0xe3, 
  0xc8, 0xea, 0xe3, 0x80, 0xaa, 0xf1, 0xff, 0xff, 0x04, 0x00, 0x00, 0x00, 
  0x90, 0x00, 0x00, 0x00, 0xb5, 0x3e, 0x3b, 0xab, 0x10, 0x72, 0xc1, 0xab, 
  0x48, 0x5d, 0x7f, 0x51, 0x6c, 0x7f, 0x51, 0xb5, 0x31, 0x1b, 0x04, 0x62, 
  0x7f, 0x3a, 0xcb, 0xe0, 0xf3, 0xb2, 0xb6, 0xa3, 0xac, 0x4e, 0x5b, 0x1c, 
  0x9e, 0x7f, 0x28, 0x4b, 0x7d, 0x7f, 0x75, 0x37, 0xf8, 0x46, 0x26, 0x10, 
  0x39, 0x6a, 0x2f, 0x86, 0x7f, 0x2c, 0x24, 0x92, 0x55, 0x43, 0x88, 0x06, 
  0xcb, 0xc0, 0x50, 0xe4, 0x15, 0xc0, 0x66, 0xc8, 0x14, 0x95, 0xa7, 0x21, 
  0xf0, 0x31, 0x76, 0x4e, 0x5c, 0xa9, 0xeb, 0x7f, 0x6c, 0x59, 0x8e, 0x81, 
  0xa5, 0x27, 0x1e, 0xca, 0x91, 0x0e, 0x3a, 0xa7, 0x6b, 0xcf, 0xce, 0xc3, 
  0x81, 0xed, 0x7f, 0xba, 0xd2, 0xf7, 0xf6, 0xdb, 0x08, 0x41, 0x81, 0xa3, 
  0x13, 0x51, 0x87, 0x3b, 0x26, 0x6c, 0xb2, 0xf4, 0x40, 0x29, 0xcb, 0xa8, 
  0x0e, 0x35, 0xbc, 0xd2, 0x7f, 0xb4, 0x7e, 0x08, 0x56, 0x21, 0xce, 0xcd, 
  0xd8, 0x6c, 0x81, 0x81, 0x0e, 0x5d, 0x8d, 0x81, 0x45, 0x81, 0x50, 0xd0, 
  0xec, 0x78, 0x44, 0xf4, 0x46, 0xf2, 0xff, 0xff, 0x04, 0x00, 0x00, 0x00, 
  0x40, 0x00, 0x00, 0x00, 0x00, 0x00, 0x00, 0x00, 0x00, 0x00, 0x00, 0x00, 
  0x00, 0x00, 0x00, 0x00, 0x00, 0x00, 0x00, 0x00, 0x00, 0x00, 0x00, 0x00, 
  0x00, 0x00, 0x00, 0x00, 0x00, 0x00, 0x00, 0x00, 0x00, 0x00, 0x00, 0x00, 
  0x00, 0x00, 0x00, 0x00, 0x00, 0x00, 0x00, 0x00, 0x00, 0x00, 0x00, 0x00, 
  0x00, 0x00, 0x00, 0x00, 0x00, 0x00, 0x00, 0x00, 0x00, 0x00, 0x00, 0x00, 
  0x00, 0x00, 0x00, 0x00, 0x00, 0x00, 0x00, 0x00, 0x92, 0xf2, 0xff, 0xff, 
  0x04, 0x00, 0x00, 0x00, 0x00, 0x02, 0x00, 0x00, 0xc0, 0x30, 0x98, 0x1f, 
  0x28, 0xd2, 0xb6, 0xb1, 0x1a, 0x7f, 0x7f, 0x4b, 0xa0, 0xe5, 0x00, 0x63, 
  0xb2, 0x81, 0xb6, 0xa8, 0xa1, 0xc3, 0x32, 0x09, 0x09, 0x0d, 0x60, 0xa0, 
  0xfa, 0x1e, 0xd8, 0xc4, 0x77, 0x82, 0x29, 0xd0, 0x81, 0xd9, 0x82, 0xc2, 
  0x4f, 0xa0, 0xd8, 0xef, 0xaa, 0x8d, 0x1b, 0xc0, 0xab, 0x34, 0xbb, 0x28, 
  0x2f, 0x13, 0xb3, 0xc3, 0xdc, 0x81, 0x1d, 0xe1, 0xaa, 0xd5, 0x45, 0x26, 
  0x02, 0xd2, 0x63, 0x1e, 0x26, 0xb0, 0xd9, 0x67, 0xfe, 0x81, 0xa5, 0xda, 
  0x8c, 0xfc, 0x56, 0x01, 0xd7, 0xc2, 0xc3, 0x08, 0x0d, 0x7f, 0xbd, 0xe4, 
  0xf9, 0x5e, 0xe4, 0x40, 0x56, 0x3c, 0xe6, 0xe5, 0x0c, 0xcb, 0xa2, 0x0d, 
  0x4e, 0x66, 0x28, 0x53, 0x81, 0x08, 0x05, 0x57, 0xd3, 0x06, 0x9b, 0x1f, 
  0x5e, 0xed, 0x86, 0x7f, 0x26, 0x7d, 0xd2, 0x7a, 0xed, 0x66, 0x34, 0x68, 
  0x24, 0x07, 0x04, 0xb5, 0x34, 0xa7, 0xf5, 0x2b, 0x93, 0x50, 0x4d, 0xd4, 
  0x8a, 0xe1, 0x93, 0xb5, 0x7f, 0x41, 0x2a, 0xb4, 0x48, 0x81, 0xb4, 0x4f, 
  0xde, 0x20, 0x63, 0xf7, 0xf8, 0x32, 0xbb, 0x42, 0x23, 0x7f, 0x1c, 0x3d, 
  0x5e, 0xa9, 0x46, 0x38, 0x0f, 0x64, 0xe8, 0xc4, 0xc7, 0x7c, 0xca, 0xc9, 
  0x7f, 0xb6, 0xc1, 0x4e, 0x55, 0xfb, 0xae, 0x81, 0x55, 0xd4, 0xde, 0x2f, 
  0xe5, 0xfb, 0xa1, 0x35, 0x3d, 0x96, 0x63, 0xa0, 0x0c, 0xa6, 0xe5, 0x67, 
  0x3d, 0x81, 0x03, 0x3c, 0x1b, 0xb5, 0x5d, 0xa0, 0xb1, 0x6c, 0xc0, 0x74, 
  0x47, 0x4b, 0x6f, 0x1e, 0x5b, 0xa3, 0x7b, 0x7f, 0x6d, 0x1a, 0xa0, 0x8d, 
  0xc7, 0x6f, 0x77, 0x7b, 0x4b, 0x0d, 0x7f, 0x46, 0x1f, 0xe1, 0x5a, 0xc9, 
  0xe9, 0xce, 0xd0, 0x25, 0x8c, 0x35, 0x82, 0xcd, 0x69, 0xf5, 0x11, 0xe7, 
  0xcb, 0xd6, 0x7f, 0xae, 0xb6, 0x16, 0xc9, 0x25, 0x9a, 0xcc, 0xa0, 0xb7, 
  0x0d, 0x02, 0x44, 0x60, 0x2d, 0xe5, 0x7f, 0xb1, 0x13, 0x32, 0xf4, 0xb2, 
  0x82, 0x04, 0x51, 0xc4, 0xdc, 0x02, 0x2c, 0x30, 0xc3, 0x81, 0x2f, 0x18, 
  0xd8, 0xa2, 0xd9, 0x93, 0x45, 0x5f, 0x44, 0x69, 0xe2, 0xd1, 0x12, 0x0e, 
  0x56, 0x6a, 0xd5, 0x4d, 0x87, 0x54, 0x81, 0x5c, 0xc3, 0x63, 0x85, 0xb1, 
  0x44, 0xec, 0x92, 0x87, 0x5b, 0xb7, 0xbd, 0xd0, 0x8e, 0xd3, 0x48, 0x43, 
  0x81, 0x17, 0x79, 0x9a, 0x81, 0xb4, 0x20, 0x24, 0x88, 0x00, 0xb1, 0x68, 
  0x2e, 0x83, 0x78, 0xed, 0x55, 0xea, 0xb5, 0x22, 0xaa, 0xf3, 0xda, 0x32, 
  0x59, 0x72, 0xde, 0xf7, 0x99, 0xf5, 0x81, 0xb3, 0xa8, 0xc0, 0x90, 0x3e, 
  0x77, 0x4e, 0x4d, 0xbf, 0x47, 0xdf, 0x06, 0xd8, 0xe4, 0xb2, 0x1a, 0xcd, 
  0x7f, 0x23, 0x9e, 0x7c, 0x7f, 0x2a, 0x30, 0xa9, 0x67, 0x20, 0x56, 0x14, 
  0x0e, 0xaa, 0x3a, 0x33, 0x1b, 0x67, 0xd3, 0x79, 0x59, 0x52, 0xd7, 0x48, 
  0x6c, 0xff, 0xe1, 0xf0, 0xe4, 0x7f, 0xdc, 0xb1, 0xe3, 0x3f, 0xc5, 0xc3, 
  0x5c, 0xc3, 0x6a, 0xe1, 0xa7, 0x81, 0x37, 0x48, 0xe3, 0xa2, 0x9b, 0x0d, 
  0xeb, 0xe2, 0x7c, 0x7c, 0xd5, 0x5e, 0x2a, 0x6d, 0x65, 0x7f, 0xac, 0x1a, 
  0x45, 0x7c, 0xf2, 0x2f, 0xf6, 0xff, 0x23, 0xd7, 0xbc, 0x1b, 0x47, 0xe2, 
  0xbb, 0x91, 0xc9, 0xb9, 0x81, 0x3e, 0x3e, 0x3d, 0xfb, 0x62, 0xe0, 0x37, 
  0xc1, 0x6b, 0xa0, 0x7d, 0x81, 0x62, 0xd6, 0x51, 0x2a, 0x08, 0x98, 0x06, 
  0x8f, 0xd9, 0x05, 0x8e, 0xe5, 0x81, 0xe3, 0xf4, 0x8d, 0xa1, 0x4e, 0x31, 
  0x0d, 0x04, 0x91, 0x50, 0x30, 0x7d, 0xda, 0x64, 0xa0, 0xd0, 0x5f, 0x14, 
  0x26, 0x26, 0xee, 0x81, 0x38, 0x08, 0xf6, 0x29, 0x2c, 0xa8, 0xc4, 0x6e, 
  0xc4, 0x25, 0x79, 0xeb, 0x28, 0x7f, 0x5b, 0x3c, 0x0c, 0xaa, 0x39, 0x20, 
  0x6b, 0xd4, 0xc5, 0xbd, 0x9e, 0xf4, 0xff, 0xff, 0x04, 0x00, 0x00, 0x00, 
  0x80, 0x00, 0x00, 0x00, 0x11, 0x00, 0x00, 0x00, 0x7e, 0xff, 0xff, 0xff, 
  0x9f, 0x00, 0x00, 0x00, 0x40, 0xfe, 0xff, 0xff, 0x8b, 0x01, 0x00, 0x00, 
  0xd7, 0xfe, 0xff, 0xff, 0x40, 0xfe, 0xff, 0xff, 0x53, 0xfc, 0xff, 0xff, 
  0x6c, 0xfe, 0xff, 0xff, 0xed, 0xff, 0xff, 0xff, 0xc5, 0xff, 0xff, 0xff, 
  0xdc, 0x00, 0x00, 0x00, 0xe9, 0xfe, 0xff, 0xff, 0x87, 0x00, 0x00, 0x00, 
  0xce, 0x00, 0x00, 0x00, 0xe0, 0xfe, 0xff, 0xff, 0x33, 0xff, 0xff, 0xff, 
  0x71, 0xff, 0xff, 0xff, 0x51, 0xfc, 0xff, 0xff, 0x07, 0x00, 0x00, 0x00, 
  0xa8, 0xfe, 0xff, 0xff, 0xae, 0xff, 0xff, 0xff, 0x0d, 0x00, 0x00, 0x00, 
  0x9d, 0xff, 0xff, 0xff, 0xf2, 0xff, 0xff, 0xff, 0xe5, 0xfe, 0xff, 0xff, 
  0x53, 0xfe, 0xff, 0xff, 0xf5, 0xff, 0xff, 0xff, 0xe5, 0xfd, 0xff, 0xff, 
  0x1d, 0xfe, 0xff, 0xff, 0x0c, 0xfe, 0xff, 0xff, 0x81, 0xff, 0xff, 0xff, 
  0x2a, 0xf5, 0xff, 0xff, 0x04, 0x00, 0x00, 0x00, 0x20, 0x00, 0x00, 0x00, 
  0x46, 0x2b, 0x23, 0x37, 0x24, 0xda, 0x1c, 0x28, 0x23, 0x1c, 0x07, 0x14, 
  0xfb, 0xe9, 0x24, 0x7f, 0x79, 0xe5, 0x2f, 0x04, 0x7d, 0xfd, 0xf9, 0xea, 
  0x5e, 0xe7, 0xea, 0xfc, 0x0c, 0xfa, 0x17, 0xd6, 0x56, 0xf5, 0xff, 0xff, 
  0x04, 0x00, 0x00, 0x00, 0x20, 0x00, 0x00, 0x00, 0x8f, 0xb0, 0x8d, 0xff, 
  0x87, 0x1b, 0x12, 0x1d, 0x27, 0xe2, 0xce, 0x80, 0xa7, 0x84, 0xc4, 0xbe, 
  0xd9, 0xa1, 0x13, 0xbe, 0xea, 0xf7, 0xc9, 0xdd, 0xe6, 0x91, 0x14, 0x9b, 
  0x03, 0xb5, 0x2b, 0xd7, 0x82, 0xf5, 0xff, 0xff, 0x04, 0x00, 0x00, 0x00, 
  0x00, 0x08, 0x00, 0x00, 0xb2, 0x1f, 0xcd, 0x2c, 0x63, 0xd6, 0x03, 0x1a, 
  0x02, 0x78, 0xd8, 0xda, 0x33, 0x03, 0x78, 0xfd, 0x66, 0xdb, 0x7f, 0xe7, 
  0x40, 0x01, 0xd3, 0xc9, 0x5a, 0xf1, 0x21, 0xc2, 0xdc, 0xc2, 0x94, 0x58, 
  0x1c, 0x49, 0xf4, 0x8c, 0x3b, 0xe7, 0xe7, 0xa1, 0xc9, 0xa0, 0xb0, 0xe5, 
  0xaf, 0x9e, 0x32, 0x06, 0x1f, 0x3b, 0x03, 0xb4, 0x2d, 0x33, 0x02, 0xcf, 
  0xf3, 0x38, 0x81, 0x30, 0xeb, 0x8c, 0x30, 0xf5, 0x6e, 0x30, 0x48, 0xac, 
  0x47, 0x9b, 0x70, 0x6b, 0xe1, 0xbb, 0x3e, 0xd4, 0x41, 0x1a, 0xf3, 0x5a, 
  0x70, 0x32, 0xc8, 0xa2, 0xac, 0x32, 0x25, 0xfe, 0x7f, 0x4e, 0x57, 0xbd, 
  0xac, 0x5f, 0x61, 0x86, 0x5b, 0xdb, 0x45, 0x2f, 0x53, 0x27, 0x3b, 0xdb, 
  0xa1, 0x07, 0x1d, 0xd7, 0x4a, 0x52, 0x1e, 0x5d, 0x03, 0x93, 0x50, 0x34, 
  0x31, 0x25, 0xf2, 0xb3, 0xc1, 0xd0, 0xf8, 0x11, 0x28, 0x81, 0x1f, 0x0c, 
  0xd7, 0xb3, 0x2c, 0xe5, 0x1c, 0xa8, 0x84, 0xbd, 0xf6, 0x82, 0x05, 0xf0, 
  0xb8, 0x9e, 0x56, 0xd6, 0x92, 0x1b, 0x23, 0xf9, 0x97, 0x40, 0x83, 0xf3, 
  0x15, 0x64, 0xb4, 0x94, 0x9d, 0x81, 0x5e, 0x5c, 0xe1, 0x15, 0x0a, 0xff, 
  0xa6, 0x30, 0x7f, 0x52, 0x19, 0x08, 0x8c, 0x5c, 0xe0, 0x52, 0xd7, 0xc8, 
  0x73, 0x81, 0x82, 0x9c, 0x15, 0xbc, 0xfd, 0xf1, 0x4d, 0x59, 0xf4, 0xa0, 
  0xb6, 0x57, 0x97, 0x05, 0xbf, 0xad, 0x31, 0x12, 0x1e, 0xd4, 0x1c, 0x2e, 
  0x60, 0x59, 0x3a, 0xb8, 0xec, 0x81, 0x2a, 0x67, 0xa2, 0xdf, 0x95, 0xf1, 
  0xde, 0xa8, 0x11, 0x10, 0x4b, 0x0e, 0x95, 0x67, 0x21, 0x9e, 0xea, 0x9c, 
  0x55, 0xc2, 0x36, 0xf0, 0x35, 0xcc, 0x2b, 0xdf, 0x86, 0x8a, 0x38, 0x1f, 
  0xc6, 0xa6, 0x4a, 0xb5, 0xae, 0xb2, 0x2c, 0xfc, 0x02, 0x47, 0x4b, 0x37, 
  0x48, 0x8e, 0x8a, 0x3b, 0x3c, 0x81, 0x30, 0x9e, 0xe8, 0xe7, 0xa1, 0x16, 
  0x53, 0x01, 0x70, 0xd8, 0xcb, 0x4a, 0x51, 0xec, 0x54, 0x31, 0x2c, 0x94, 
  0x8f, 0x5e, 0xb6, 0xce, 0xe6, 0x5c, 0x50, 0x9f, 0xfe, 0x3c, 0x4a, 0xc0, 
  0xf9, 0x7f, 0x61, 0x25, 0x1d, 0xba, 0x10, 0x76, 0x23, 0xcc, 0x7f, 0x89, 
  0x95, 0xd6, 0x0f, 0xa8, 0xa5, 0x29, 0x58, 0x09, 0xef, 0xef, 0x67, 0x43, 
  0x92, 0xee, 0xb8, 0x14, 0x9a, 0x55, 0xde, 0x02, 0x20, 0x1e, 0x94, 0xe8, 
  0x0f, 0x2a, 0xb9, 0xe9, 0x2b, 0x0f, 0x7f, 0x54, 0x73, 0x41, 0xe1, 0x4c, 
  0x5c, 0xf4, 0x69, 0x83, 0xab, 0xa6, 0xcb, 0x1d, 0xac, 0x1d, 0x54, 0x3c, 
  0xd7, 0xb3, 0xdb, 0x1c, 0x3b, 0xc6, 0xde, 0x1b, 0xd8, 0xa1, 0xaf, 0x1a, 
  0x22, 0xf2, 0x53, 0x1e, 0x12, 0xda, 0xb9, 0xe8, 0xdf, 0x9f, 0x19, 0x59, 
  0x66, 0xc0, 0xa7, 0xe0, 0xe9, 0x81, 0xa6, 0x08, 0xd7, 0x3e, 0xb6, 0x3c, 
  0x02, 0x1c, 0x4e, 0x1d, 0x38, 0xe0, 0x47, 0x8d, 0xfa, 0x91, 0x0b, 0xfc, 
  0x09, 0x03, 0xfa, 0x3b, 0xf8, 0xe3, 0xff, 0x52, 0xe2, 0xdf, 0x81, 0xe5, 
  0xbf, 0x9f, 0x5e, 0x3c, 0x2a, 0x46, 0x34, 0xab, 0x91, 0x2f, 0x37, 0xc6, 
  0x0d, 0x03, 0x7a, 0xe1, 0xba, 0xf8, 0x1c, 0xdc, 0xba, 0xa1, 0xb5, 0x21, 
  0xcb, 0xcd, 0xf1, 0xec, 0x9a, 0x72, 0x0c, 0x8d, 0x62, 0xaa, 0xdb, 0x29, 
  0xc8, 0x0b, 0x7f, 0xa9, 0x54, 0xd3, 0x94, 0x19, 0xed, 0x10, 0x52, 0xdc, 
  0x0c, 0xd4, 0x86, 0xd0, 0x5e, 0x42, 0x33, 0x79, 0xa8, 0x70, 0x6d, 0x0a, 
  0x22, 0x88, 0x81, 0x60, 0x2c, 0x31, 0xcb, 0x59, 0xda, 0xab, 0x41, 0x8d, 
  0x5e, 0x2c, 0x46, 0x04, 0x0e, 0x75, 0x22, 0x5e, 0xe0, 0xff, 0xe0, 0x73, 
  0xc4, 0x91, 0x1d, 0xaf, 0x1d, 0x29, 0xdd, 0x57, 0x07, 0x0e, 0xb5, 0xee, 
  0x1d, 0xd1, 0xb3, 0x1c, 0xd8, 0x37, 0x5b, 0x7f, 0x37, 0x17, 0x94, 0x62, 
  0x31, 0x97, 0xfb, 0x0a, 0x26, 0xe3, 0x2e, 0xa9, 0x02, 0x54, 0xf0, 0xca, 
  0xcf, 0x17, 0x95, 0xb4, 0x13, 0x6a, 0x53, 0xfc, 0xdb, 0x52, 0xcc, 0x06, 
  0x03, 0x7f, 0x41, 0x6d, 0x47, 0x33, 0xe5, 0xaa, 0xf8, 0xc3, 0x4d, 0xb2, 
  0xeb, 0x59, 0xc9, 0x1b, 0x3b, 0x7f, 0x31, 0xeb, 0x2a, 0xb7, 0xe7, 0x3a, 
  0xcb, 0x74, 0xf5, 0x10, 0x4d, 0x53, 0x09, 0x9f, 0x2f, 0x9e, 0xcc, 0x05, 
  0xde, 0x46, 0x4b, 0xa7, 0xa1, 0xa0, 0xb1, 0xd2, 0xf9, 0xe2, 0x41, 0x54, 
  0x31, 0x22, 0xf3, 0xba, 0xcf, 0x0b, 0xc8, 0x90, 0x84, 0x25, 0x02, 0x52, 
  0xa5, 0xe7, 0x62, 0x7f, 0x6a, 0x72, 0xfe, 0x32, 0xfd, 0xc2, 0x21, 0x0d, 
  0x28, 0x37, 0xc3, 0xa9, 0x22, 0x3d, 0x4d, 0xf0, 0xda, 0x81, 0x5d, 0xe5, 
  0x1f, 0xbf, 0x60, 0xcb, 0x07, 0x8e, 0x35, 0xff, 0xcd, 0x38, 0x71, 0xe9, 
  0xad, 0x33, 0x25, 0xa4, 0x70, 0x28, 0xcd, 0xa1, 0x4e, 0x54, 0x59, 0x5f, 
  0xd4, 0x64, 0x47, 0xba, 0x8c, 0xfa, 0x3e, 0x63, 0x7f, 0x95, 0x6c, 0x27, 
  0x2a, 0xd5, 0xe7, 0xc9, 0xf9, 0x5f, 0x04, 0x29, 0xf4, 0x12, 0x30, 0xb7, 
  0x2e, 0xae, 0x15, 0xcc, 0xdf, 0xd1, 0xa0, 0x6f, 0x31, 0x58, 0xc1, 0x50, 
  0x13, 0xcb, 0x48, 0x97, 0xde, 0x05, 0x36, 0x36, 0x8a, 0x05, 0x09, 0x93, 
  0x58, 0x44, 0x99, 0x19, 0x57, 0x98, 0xb8, 0xe4, 0x50, 0x7f, 0xb9, 0xfe, 
  0x1e, 0xa6, 0xcb, 0xab, 0xbc, 0xa2, 0x03, 0x36, 0x4a, 0x5a, 0x4f, 0xf4, 
  0xb0, 0x4f, 0x3e, 0x2e, 0x43, 0x19, 0xe0, 0xfc, 0x7f, 0x58, 0x37, 0x2a, 
  0x59, 0x38, 0xd0, 0xf3, 0xce, 0x10, 0x39, 0x5d, 0x42, 0x9d, 0x7f, 0x0a, 
  0xf7, 0x9b, 0x09, 0x2a, 0xb6, 0x4d, 0xf0, 0x2f, 0x5e, 0x3a, 0xa4, 0x5d, 
  0xc9, 0x2a, 0x67, 0x42, 0xb9, 0x09, 0x9f, 0xf6, 0xd5, 0x04, 0xb7, 0x39, 
  0xa3, 0xe4, 0x1a, 0x11, 0x97, 0x43, 0xb5, 0xe9, 0x81, 0x5d, 0xf5, 0x08, 
  0x66, 0x19, 0xd0, 0xa5, 0x44, 0x33, 0x06, 0xa7, 0xe8, 0x34, 0xfa, 0x3c, 
  0xa9, 0x05, 0x47, 0xd2, 0xdf, 0x1b, 0x1c, 0xf9, 0x3c, 0x36, 0xed, 0x1c, 
  0x9c, 0x0f, 0xef, 0xac, 0xee, 0xc7, 0x29, 0x24, 0x5c, 0xf5, 0x01, 0x57, 
  0x16, 0xe4, 0xec, 0xa9, 0xb8, 0x3a, 0x3c, 0xd7, 0xb8, 0x7f, 0xc4, 0x68, 
  0x58, 0xbd, 0x0a, 0xaf, 0xde, 0x62, 0xc2, 0xc8, 0xb0, 0xef, 0xc2, 0xf0, 
  0x63, 0xc3, 0x00, 0x98, 0x5d, 0xd2, 0xb1, 0x25, 0xc1, 0x1a, 0xaf, 0x27, 
  0x58, 0xa9, 0x95, 0x8b, 0xfa, 0x43, 0xb9, 0x97, 0xb5, 0x81, 0x23, 0x91, 
  0x5e, 0xa5, 0x6e, 0xe9, 0x16, 0x81, 0x84, 0xc8, 0x64, 0x49, 0x74, 0x72, 
  0x53, 0xff, 0x42, 0x57, 0xfd, 0x41, 0xdb, 0xb0, 0x3c, 0x44, 0x32, 0xae, 
  0xee, 0xc6, 0xe1, 0xb5, 0x36, 0x1a, 0x73, 0xfc, 0x75, 0xf6, 0xfd, 0xf9, 
  0xdf, 0xf0, 0xf2, 0xd2, 0xe8, 0x07, 0x62, 0x02, 0xbf, 0xf5, 0x4a, 0xfc, 
  0x28, 0x2e, 0x0e, 0xfb, 0xa2, 0xba, 0x55, 0xd0, 0x10, 0xcf, 0xd5, 0xfb, 
  0xb9, 0xdf, 0x71, 0x7f, 0xe3, 0x78, 0x1d, 0x2e, 0x37, 0xea, 0xb5, 0xe0, 
  0xda, 0x31, 0xba, 0xef, 0xa5, 0x07, 0xdc, 0x2c, 0x99, 0x7f, 0xea, 0xdd, 
  0xcb, 0x05, 0xd8, 0x07, 0xea, 0x40, 0x97, 0x97, 0xd9, 0x7e, 0xe6, 0x7c, 
  0xc4, 0x27, 0xd7, 0xd9, 0xbd, 0x23, 0x8d, 0xc5, 0x09, 0x1e, 0x7c, 0x02, 
  0x60, 0x24, 0xc2, 0xb7, 0x2a, 0x10, 0x3d, 0xf0, 0xd3, 0xb9, 0x32, 0x44, 
  0x1f, 0x5b, 0x63, 0xb7, 0x43, 0x30, 0xbf, 0xbe, 0x6e, 0x7f, 0xec, 0xcf, 
  0xd5, 0x69, 0xce, 0x34, 0x22, 0x2b, 0x24, 0xcb, 0xd5, 0xf5, 0xeb, 0x3e, 
  0x9f, 0xa3, 0x1b, 0x09, 0x62, 0x4f, 0x20, 0x7f, 0xa1, 0xa6, 0xdd, 0x30, 
  0x2d, 0x46, 0x35, 0x32, 0xf7, 0x37, 0x53, 0x0c, 0xf8, 0x34, 0xa7, 0x9f, 
  0xe5, 0x33, 0xb0, 0x0f, 0xcc, 0x76, 0xd0, 0x6c, 0xd5, 0x7f, 0x55, 0xe3, 
  0x41, 0x2b, 0xe6, 0x4b, 0xa7, 0xdc, 0xc0, 0xf9, 0x5e, 0xac, 0x0b, 0xbd, 
  0x5e, 0x07, 0x01, 0x2d, 0xf9, 0x35, 0x8d, 0xf0, 0x3d, 0x4a, 0x7f, 0xf6, 
  0xe8, 0x6e, 0xb0, 0xa3, 0x13, 0xbc, 0x59, 0x5f, 0xa5, 0x30, 0x67, 0xe6, 
  0x42, 0x5e, 0x17, 0x29, 0xd5, 0x67, 0x6c, 0xe7, 0xbd, 0x20, 0x69, 0x49, 
  0xa0, 0xe5, 0x01, 0x3b, 0xb7, 0xb3, 0x65, 0xc4, 0x08, 0x31, 0x92, 0x11, 
  0x81, 0x5c, 0xd0, 0xef, 0x67, 0x96, 0x86, 0xf4, 0xf2, 0xcd, 0xc0, 0xb6, 
  0xa8, 0xbe, 0x89, 0xef, 0x9e, 0x2c, 0xcf, 0x81, 0x61, 0x16, 0x2a, 0x36, 
  0xff, 0x18, 0x15, 0xdc, 0xce, 0x22, 0x07, 0x2f, 0x24, 0xe8, 0x1d, 0x5a, 
  0x18, 0x37, 0x81, 0xc1, 0x30, 0xed, 0x1e, 0x40, 0x40, 0xb1, 0xeb, 0xa2, 
  0x3f, 0x8f, 0xd0, 0x43, 0xe0, 0xe6, 0x59, 0x5c, 0x85, 0x43, 0x90, 0xb4, 
  0xf6, 0xbe, 0xf5, 0x13, 0xd9, 0x3e, 0xac, 0x1b, 0xdc, 0xdf, 0xba, 0x7f, 
  0x29, 0x2d, 0x21, 0xd3, 0x6a, 0xce, 0xe8, 0xa7, 0xbf, 0xc7, 0xce, 0xa5, 
  0x7f, 0x51, 0x10, 0x55, 0xad, 0x79, 0x50, 0xe8, 0xb5, 0xd0, 0xba, 0x11, 
  0x2a, 0xce, 0x59, 0xde, 0x40, 0x46, 0xba, 0x04, 0x2a, 0xea, 0xb4, 0xb8, 
  0x83, 0x41, 0xd1, 0xf6, 0x24, 0x56, 0x0a, 0xfa, 0xca, 0xdf, 0xc4, 0x04, 
  0x46, 0x0f, 0x24, 0x9a, 0x91, 0xc7, 0xef, 0x6f, 0xba, 0xfd, 0x39, 0x39, 
  0x2d, 0xd1, 0x81, 0x25, 0xd2, 0x1f, 0xcc, 0x1e, 0x45, 0x91, 0x28, 0x01, 
  0xf6, 0x95, 0xea, 0x97, 0xc8, 0x91, 0x90, 0x96, 0x16, 0x96, 0x0e, 0xb4, 
  0x8d, 0xe9, 0x29, 0x22, 0xa0, 0x36, 0x1b, 0xc1, 0xa6, 0x54, 0xb5, 0x46, 
  0x6e, 0xcd, 0xd6, 0xad, 0x45, 0xfe, 0x0f, 0x81, 0x1f, 0x12, 0x3e, 0x62, 
  0x0b, 0x02, 0x9e, 0xf0, 0x10, 0xc0, 0x96, 0xd8, 0xc4, 0xf5, 0x67, 0x8a, 
  0x8c, 0xca, 0x17, 0xf8, 0xe5, 0x4e, 0xd3, 0x79, 0x94, 0x27, 0x81, 0xea, 
  0x00, 0x54, 0x4a, 0x82, 0x5a, 0x69, 0x17, 0x76, 0x0e, 0x67, 0xb4, 0xff, 
  0xdc, 0x4a, 0x95, 0x47, 0x36, 0xc6, 0x7c, 0x5a, 0x29, 0x8d, 0x55, 0xd1, 
  0x99, 0xd5, 0xcc, 0x66, 0x81, 0x32, 0xce, 0xb3, 0xcd, 0xe9, 0x9f, 0xad, 
  0x2d, 0x20, 0x03, 0x42, 0xb7, 0x23, 0xe8, 0xd7, 0xaf, 0x9f, 0x7c, 0x60, 
  0x1c, 0x2a, 0x97, 0xb2, 0x1a, 0x71, 0x81, 0xfc, 0x52, 0x6f, 0x42, 0xd1, 
  0x21, 0xe9, 0x06, 0xe8, 0x04, 0xf7, 0xa2, 0xfa, 0x48, 0xf2, 0xfc, 0x0a, 
  0x69, 0xac, 0xc5, 0xa6, 0x50, 0x5b, 0xcd, 0x27, 0xf8, 0x40, 0x51, 0xc3, 
  0x34, 0x29, 0x9d, 0x26, 0x92, 0x58, 0x78, 0x55, 0x03, 0x81, 0x74, 0x7e, 
  0x0d, 0x2c, 0xd4, 0xfc, 0x54, 0x51, 0xce, 0x87, 0x18, 0x7f, 0x32, 0xc8, 
  0x0b, 0xb1, 0x58, 0x9c, 0x8c, 0xf1, 0xb2, 0x64, 0xdf, 0xdb, 0x04, 0xbd, 
  0xb8, 0x53, 0xd6, 0xa7, 0x71, 0x45, 0xfe, 0x31, 0x74, 0xda, 0x9c, 0x93, 
  0x19, 0x24, 0x1a, 0xc5, 0xc4, 0xee, 0x2f, 0xde, 0x8e, 0xbf, 0x09, 0x6a, 
  0xc8, 0x16, 0x15, 0xfe, 0x7f, 0xb4, 0x21, 0xf5, 0xe1, 0x2c, 0x6d, 0xd0, 
  0x48, 0xbf, 0xd9, 0x1c, 0x07, 0x33, 0xfa, 0x12, 0xec, 0xdd, 0x30, 0x32, 
  0x81, 0xf5, 0x39, 0xa4, 0x90, 0x32, 0xb7, 0x76, 0x00, 0x6d, 0x44, 0x14, 
  0xe6, 0x5d, 0xf7, 0xf9, 0x0d, 0xb6, 0xe5, 0xea, 0xb4, 0x0a, 0x1b, 0x69, 
  0x2d, 0x9e, 0x2d, 0x19, 0xc9, 0x53, 0x0d, 0xbe, 0xa5, 0x69, 0xe6, 0x39, 
  0x6f, 0x81, 0x81, 0x0b, 0xdd, 0xbe, 0xa8, 0xbf, 0x73, 0xd9, 0x12, 0xd9, 
  0xd8, 0x47, 0x96, 0x0f, 0x9d, 0x64, 0xf9, 0x84, 0x06, 0x05, 0xc0, 0x33, 
  0x05, 0xac, 0x54, 0x96, 0x98, 0xfa, 0xca, 0x15, 0x26, 0x19, 0xc5, 0x71, 
  0x21, 0x51, 0xa0, 0xdb, 0xf5, 0x2b, 0xf2, 0xad, 0x44, 0x87, 0xdf, 0x2c, 
  0x26, 0x81, 0xce, 0x94, 0x3d, 0xaa, 0xb0, 0xf4, 0xba, 0x5d, 0x17, 0x64, 
  0x1e, 0x81, 0x40, 0x9d, 0x22, 0x54, 0x2f, 0xf5, 0x23, 0x63, 0x32, 0x48, 
  0x0d, 0xaa, 0x24, 0x9a, 0x96, 0x72, 0x5e, 0x53, 0x02, 0xe6, 0x66, 0x61, 
  0x08, 0x50, 0x4d, 0x0d, 0x56, 0xae, 0xa8, 0x85, 0x22, 0xb3, 0xca, 0x81, 
  0xac, 0x4b, 0x64, 0xfc, 0xea, 0x42, 0xc7, 0x16, 0x10, 0x21, 0x22, 0x15, 
  0xb2, 0xee, 0x22, 0xb6, 0xfd, 0x53, 0x58, 0x4b, 0xe0, 0xd9, 0xec, 0x6c, 
  0xfd, 0x00, 0x9d, 0x5b, 0xd5, 0x24, 0x15, 0xdc, 0x05, 0xeb, 0xb3, 0xd9, 
  0xda, 0xee, 0xdc, 0xaf, 0x25, 0xd1, 0x06, 0xa3, 0x1b, 0x3d, 0x0d, 0x60, 
  0xea, 0x81, 0x46, 0x18, 0xaf, 0x21, 0x4b, 0xf8, 0x18, 0x42, 0x19, 0xde, 
  0xea, 0xd1, 0x1a, 0x7f, 0x51, 0xff, 0x9a, 0xf1, 0xa4, 0xb7, 0x3f, 0x43, 
  0x78, 0xde, 0xc2, 0x52, 0x98, 0xc9, 0x46, 0xe5, 0x1f, 0xe1, 0xe6, 0x11, 
  0x93, 0xa5, 0x4f, 0x74, 0x53, 0xd2, 0xe9, 0x92, 0x39, 0x43, 0xb0, 0xaa, 
  0xee, 0x84, 0x16, 0xae, 0xf7, 0xbd, 0xe3, 0xa0, 0xbc, 0x34, 0x3b, 0x1c, 
  0xc8, 0xfa, 0xc2, 0xf1, 0x58, 0x08, 0xfb, 0x81, 0xd3, 0xc4, 0xcf, 0x49, 
  0x8a, 0xc6, 0xa4, 0x1c, 0xbf, 0xc7, 0xbc, 0xc7, 0xee, 0x62, 0xcd, 0xe4, 
  0x09, 0xe7, 0x42, 0xc9, 0x52, 0xc3, 0x31, 0x8f, 0xe6, 0x54, 0x08, 0xdd, 
  0xa8, 0x7f, 0x4e, 0x57, 0x1b, 0xa6, 0x52, 0x4e, 0x1c, 0x3b, 0x43, 0x9f, 
  0xa4, 0x40, 0x0f, 0x7f, 0xca, 0x39, 0x18, 0x09, 0x12, 0xcd, 0x0f, 0xb6, 
  0x68, 0x73, 0x46, 0xb3, 0x47, 0x36, 0xa7, 0xa6, 0x72, 0x34, 0xb0, 0x49, 
  0xbf, 0x0c, 0xa8, 0xc8, 0xf5, 0xea, 0x36, 0xba, 0xd3, 0x98, 0x3f, 0xe5, 
  0xa2, 0x3e, 0x36, 0x38, 0x7f, 0xfe, 0x1b, 0x2f, 0x0b, 0x0b, 0x3e, 0x5c, 
  0x30, 0xbd, 0xd3, 0x8c, 0x4a, 0xc8, 0xde, 0xa3, 0xd7, 0x34, 0x72, 0x09, 
  0x10, 0x2d, 0x74, 0xce, 0xa1, 0xb7, 0x38, 0x61, 0x00, 0x48, 0xa1, 0x0e, 
  0x93, 0x5d, 0xb7, 0x37, 0xc2, 0x4a, 0xe9, 0xcd, 0x05, 0x81, 0xfd, 0x8b, 
  0x10, 0x09, 0xdd, 0x81, 0xf4, 0x28, 0x50, 0xc7, 0x76, 0xa9, 0x68, 0x71, 
  0xe3, 0xc8, 0x1e, 0xf4, 0x89, 0xa5, 0x4f, 0x99, 0xe2, 0xbd, 0x51, 0x66, 
  0x4a, 0x01, 0xcc, 0x30, 0x9c, 0xdb, 0x98, 0xa3, 0x2f, 0x46, 0x7f, 0x09, 
  0xc2, 0xa5, 0x05, 0xeb, 0x5c, 0x63, 0xc2, 0x5e, 0xeb, 0xb5, 0x08, 0x4b, 
  0x44, 0xe5, 0x1c, 0x51, 0xa8, 0x2c, 0x93, 0x76, 0x4a, 0x61, 0xd6, 0xa4, 
  0xd3, 0xea, 0x4a, 0xb3, 0xb5, 0x01, 0x22, 0xca, 0x5a, 0x63, 0x4b, 0x8b, 
  0x01, 0x15, 0x1c, 0x81, 0x7d, 0x82, 0x45, 0x21, 0x41, 0xf5, 0x1c, 0x47, 
  0x3a, 0x4f, 0xe1, 0xc3, 0x0f, 0xc2, 0x0a, 0x11, 0x81, 0xe6, 0x6c, 0x5c, 
  0xba, 0x12, 0x1d, 0xc7, 0xf3, 0xd7, 0x5d, 0x34, 0x5b, 0x7f, 0x4c, 0xe4, 
  0x1c, 0x31, 0xdc, 0x17, 0x2b, 0x1f, 0x04, 0x81, 0xcd, 0xc0, 0xfa, 0x66, 
  0x46, 0x93, 0xdf, 0x1e, 0x9f, 0x8d, 0x38, 0xa9, 0xd1, 0x61, 0x24, 0xe0, 
  0x4b, 0x32, 0x49, 0x5c, 0xa5, 0x68, 0xf1, 0x4c, 0xa1, 0x0e, 0x2b, 0x8e, 
  0x0e, 0x81, 0x96, 0xab, 0x46, 0x23, 0x6f, 0xb6, 0xc4, 0x24, 0x6b, 0xf9, 
  0x08, 0xe4, 0xd2, 0xcd, 0xee, 0xf2, 0x87, 0xf0, 0x14, 0x0a, 0x14, 0xb4, 
  0x9a, 0xae, 0xcb, 0xa3, 0xab, 0x47, 0x24, 0x27, 0x2d, 0xe8, 0x21, 0x14, 
  0xb5, 0x79, 0xac, 0x9d, 0x78, 0x1e, 0xc0, 0x62, 0xcc, 0x7f, 0x7d, 0xf9, 
  0xfe, 0x4d, 0xdd, 0x0f, 0x0f, 0xec, 0x78, 0x29, 0xb7, 0x30, 0x4d, 0x4f, 
  0x8e, 0xfd, 0xff, 0xff, 0x04, 0x00, 0x00, 0x00, 0x00, 0x01, 0x00, 0x00, 
  0xd2, 0x08, 0x00, 0x00, 0x54, 0x09, 0x00, 0x00, 0xc5, 0x02, 0x00, 0x00, 
  0x2c, 0xfa, 0xff, 0xff, 0xfd, 0x05, 0x00, 0x00, 0x7d, 0xed, 0xff, 0xff, 
  0xac, 0x03, 0x00, 0x00, 0xa5, 0xfa, 0xff, 0xff, 0x73, 0x0e, 0x00, 0x00, 
  0x7a, 0x02, 0x00, 0x00, 0xc0, 0xf7, 0xff, 0xff, 0x02, 0x07, 0x00, 0x00, 
  0x61, 0x01, 0x00, 0x00, 0x77, 0xfc, 0xff, 0xff, 0x6d, 0x03, 0x00, 0x00, 
  0x7b, 0xec, 0xff, 0xff, 0xc4, 0x09, 0x00, 0x00, 0xeb, 0xfb, 0xff, 0xff, 
  0xc1, 0x06, 0x00, 0x00, 0x9b, 0xf1, 0xff, 0xff, 0xc8, 0xf9, 0xff, 0xff, 
  0xa4, 0x03, 0x00, 0x00, 0x68, 0xff, 0xff, 0xff, 0x77, 0xf3, 0xff, 0xff, 
  0xd2, 0x08, 0x00, 0x00, 0x28, 0x09, 0x00, 0x00, 0xa6, 0xfe, 0xff, 0xff, 
  0x90, 0x11, 0x00, 0x00, 0xb3, 0x06, 0x00, 0x00, 0x2d, 0x04, 0x00, 0x00, 
  0xf6, 0x01, 0x00, 0x00, 0x65, 0xfd, 0xff, 0xff, 0x31, 0xff, 0xff, 0xff, 
  0xf9, 0x0d, 0x00, 0x00, 0x61, 0x07, 0x00, 0x00, 0xd0, 0x01, 0x00, 0x00, 
  0xc4, 0x06, 0x00, 0x00, 0x70, 0x00, 0x00, 0x00, 0x7c, 0x0d, 0x00, 0x00, 
  0x36, 0xfe, 0xff, 0xff, 0x21, 0xee, 0xff, 0xff, 0x0a, 0xf5, 0xff, 0xff, 
  0x39, 0x07, 0x00, 0x00, 0x91, 0xf0, 0xff, 0xff, 0xf7, 0xf8, 0xff, 0xff, 
  0xd8, 0x07, 0x00, 0x00, 0x3c, 0x05, 0x00, 0x00, 0xac, 0x06, 0x00, 0x00, 
  0xf4, 0xf0, 0xff, 0xff, 0x20, 0x0a, 0x00, 0x00, 0xec, 0x0e, 0x00, 0x00, 
  0x31, 0xfe, 0xff, 0xff, 0x83, 0xe3, 0xff, 0xff, 0x7a, 0x04, 0x00, 0x00, 
  0xdd, 0x09, 0x00, 0x00, 0xd8, 0xfd, 0xff, 0xff, 0x1e, 0x03, 0x00, 0x00, 
  0x4c, 0xf8, 0xff, 0xff, 0x50, 0xe9, 0xff, 0xff, 0xee, 0xfe, 0xff, 0xff, 
  0xff, 0x0f, 0x00, 0x00, 0xa5, 0xef, 0xff, 0xff, 0x64, 0x02, 0x00, 0x00, 
  0x7e, 0x0e, 0x00, 0x00, 0x9a, 0xfe, 0xff, 0xff, 0x04, 0x00, 0x00, 0x00, 
  0x80, 0x00, 0x00, 0x00, 0x5a, 0x9e, 0x2b, 0x2b, 0x9d, 0xe6, 0x22, 0x60, 
  0xfd, 0x49, 0xff, 0x18, 0x06, 0x00, 0xd9, 0x1e, 0x7d, 0x62, 0x34, 0xd6, 
  0xdc, 0x0a, 0x4d, 0x4a, 0x5a, 0x2b, 0x18, 0x7f, 0x2a, 0x16, 0x2e, 0xa6, 
  0x35, 0xb6, 0x83, 0xb1, 0x9d, 0xdd, 0x21, 0x9a, 0x9e, 0x2c, 0x79, 0xa1, 
  0xc3, 0xf7, 0x0d, 0x95, 0xc1, 0xc3, 0x6b, 0x94, 0x7d, 0xf4, 0x51, 0x2d, 
  0x3b, 0x0d, 0xbb, 0xcd, 0x74, 0xc7, 0xd6, 0x0e, 0xc9, 0x66, 0x03, 0x55, 
  0x4e, 0x54, 0x39, 0x53, 0x92, 0xf2, 0xf6, 0x67, 0x42, 0xd6, 0x5e, 0x4f, 
  0xc0, 0x26, 0xc9, 0xdd, 0xe5, 0xde, 0x2e, 0x2d, 0xb2, 0x81, 0x6e, 0x8c, 
  0xd3, 0xa6, 0xf2, 0x55, 0xdb, 0x8a, 0x61, 0xdc, 0x66, 0xb0, 0x6f, 0xf5, 
  0xb9, 0xa0, 0xcf, 0xae, 0xea, 0xa6, 0xd0, 0xda, 0xc0, 0x8c, 0x21, 0x4a, 
  0x59, 0x31, 0xc2, 0x16, 0xeb, 0x1d, 0x18, 0xb9, 0xf2, 0xf7, 0x32, 0xbb, 
  0x26, 0xff, 0xff, 0xff, 0x04, 0x00, 0x00, 0x00, 0x08, 0x00, 0x00, 0x00, 
  0xcb, 0x08, 0x00, 0x00, 0x83, 0xf8, 0xff, 0xff, 0x3a, 0xff, 0xff, 0xff, 
  0x04, 0x00, 0x00, 0x00, 0x08, 0x00, 0x00, 0x00, 0x01, 0x00, 0x00, 0x00, 
  0x02, 0x00, 0x00, 0x00, 0xfc, 0xdb, 0xff, 0xff, 0x00, 0xdc, 0xff, 0xff, 
  0x0f, 0x00, 0x00, 0x00, 0x4d, 0x4c, 0x49, 0x52, 0x20, 0x43, 0x6f, 0x6e, 
  0x76, 0x65, 0x72, 0x74, 0x65, 0x64, 0x2e, 0x00, 0x01, 0x00, 0x00, 0x00, 
  0x14, 0x00, 0x00, 0x00, 0x00, 0x00, 0x0e, 0x00, 0x18, 0x00, 0x14, 0x00, 
  0x10, 0x00, 0x0c, 0x00, 0x08, 0x00, 0x04, 0x00, 0x0e, 0x00, 0x00, 0x00, 
  0x14, 0x00, 0x00, 0x00, 0x1c, 0x00, 0x00, 0x00, 0xd4, 0x03, 0x00, 0x00, 
  0xd8, 0x03, 0x00, 0x00, 0xdc, 0x03, 0x00, 0x00, 0x04, 0x00, 0x00, 0x00, 
  0x6d, 0x61, 0x69, 0x6e, 0x00, 0x00, 0x00, 0x00, 0x0f, 0x00, 0x00, 0x00, 
  0x6c, 0x03, 0x00, 0x00, 0x28, 0x03, 0x00, 0x00, 0xe4, 0x02, 0x00, 0x00, 
  0x90, 0x02, 0x00, 0x00, 0x4c, 0x02, 0x00, 0x00, 0x18, 0x02, 0x00, 0x00, 
  0xe4, 0x01, 0x00, 0x00, 0x9c, 0x01, 0x00, 0x00, 0x58, 0x01, 0x00, 0x00, 
  0x24, 0x01, 0x00, 0x00, 0xf0, 0x00, 0x00, 0x00, 0xbc, 0x00, 0x00, 0x00, 
  0x78, 0x00, 0x00, 0x00, 0x40, 0x00, 0x00, 0x00, 0x04, 0x00, 0x00, 0x00, 
  0x1e, 0xfd, 0xff, 0xff, 0x1c, 0x00, 0x00, 0x00, 0x00, 0x00, 0x00, 0x09, 
  0x1c, 0x00, 0x00, 0x00, 0x20, 0x00, 0x00, 0x00, 0x06, 0x00, 0x00, 0x00, 
  0x00, 0x00, 0x06, 0x00, 0x08, 0x00, 0x04, 0x00, 0x06, 0x00, 0x00, 0x00, 
  0x00, 0x00, 0x80, 0x3f, 0x01, 0x00, 0x00, 0x00, 0x24, 0x00, 0x00, 0x00, 
  0x01, 0x00, 0x00, 0x00, 0x23, 0x00, 0x00, 0x00, 0x56, 0xfd, 0xff, 0xff, 
  0x14, 0x00, 0x00, 0x00, 0x00, 0x00, 0x00, 0x08, 0x10, 0x00, 0x00, 0x00, 
  0x14, 0x00, 0x00, 0x00, 0x05, 0x00, 0x00, 0x00, 0xe4, 0xdc, 0xff, 0xff, 
  0x01, 0x00, 0x00, 0x00, 0x23, 0x00, 0x00, 0x00, 0x03, 0x00, 0x00, 0x00, 
  0x22, 0x00, 0x00, 0x00, 0x03, 0x00, 0x00, 0x00, 0x02, 0x00, 0x00, 0x00, 
  0x8a, 0xfd, 0xff, 0xff, 0x1c, 0x00, 0x00, 0x00, 0x00, 0x00, 0x00, 0x08, 
  0x1c, 0x00, 0x00, 0x00, 0x20, 0x00, 0x00, 0x00, 0x05, 0x00, 0x00, 0x00, 
  0x00, 0x00, 0x06, 0x00, 0x08, 0x00, 0x07, 0x00, 0x06, 0x00, 0x00, 0x00, 
  0x00, 0x00, 0x00, 0x01, 0x01, 0x00, 0x00, 0x00, 0x22, 0x00, 0x00, 0x00, 
  0x03, 0x00, 0x00, 0x00, 0x21, 0x00, 0x00, 0x00, 0x05, 0x00, 0x00, 0x00, 
  0x04, 0x00, 0x00, 0x00, 0xca, 0xfd, 0xff, 0xff, 0x14, 0x00, 0x00, 0x00, 
  0x00, 0x00, 0x00, 0x1b, 0x10, 0x00, 0x00, 0x00, 0x14, 0x00, 0x00, 0x00, 
  0x04, 0x00, 0x00, 0x00, 0x58, 0xdd, 0xff, 0xff, 0x01, 0x00, 0x00, 0x00, 
  0x21, 0x00, 0x00, 0x00, 0x02, 0x00, 0x00, 0x00, 0x20, 0x00, 0x00, 0x00, 
  0x01, 0x00, 0x00, 0x00, 0xfa, 0xfd, 0xff, 0xff, 0x14, 0x00, 0x00, 0x00, 
  0x00, 0x00, 0x00, 0x0b, 0x10, 0x00, 0x00, 0x00, 0x14, 0x00, 0x00, 0x00, 
  0x02, 0x00, 0x00, 0x00, 0x88, 0xdd, 0xff, 0xff, 0x01, 0x00, 0x00, 0x00, 
  0x20, 0x00, 0x00, 0x00, 0x02, 0x00, 0x00, 0x00, 0x1f, 0x00, 0x00, 0x00, 
  0x06, 0x00, 0x00, 0x00, 0x2a, 0xfe, 0xff, 0xff, 0x14, 0x00, 0x00, 0x00, 
  0x00, 0x00, 0x00, 0x15, 0x10, 0x00, 0x00, 0x00, 0x14, 0x00, 0x00, 0x00, 
  0x01, 0x00, 0x00, 0x00, 0xb8, 0xdd, 0xff, 0xff, 0x01, 0x00, 0x00, 0x00, 
  0x1f, 0x00, 0x00, 0x00, 0x02, 0x00, 0x00, 0x00, 0x1e, 0x00, 0x00, 0x00, 
  0x07, 0x00, 0x00, 0x00, 0x1a, 0xfe, 0xff, 0xff, 0x10, 0x00, 0x00, 0x00, 
  0x00, 0x00, 0x00, 0x01, 0x1c, 0x00, 0x00, 0x00, 0x20, 0x00, 0x00, 0x00, 
  0x0c, 0xfe, 0xff, 0xff, 0x00, 0x00, 0x00, 0x01, 0x01, 0x00, 0x00, 0x00, 
  0x01, 0x00, 0x00, 0x00, 0x00, 0x00, 0x00, 0x01, 0x01, 0x00, 0x00, 0x00, 
  0x1e, 0x00, 0x00, 0x00, 0x03, 0x00, 0x00, 0x00, 0x1d, 0x00, 0x00, 0x00, 
  0x09, 0x00, 0x00, 0x00, 0x08, 0x00, 0x00, 0x00, 0x9a, 0xfe, 0xff, 0xff, 
  0x14, 0x00, 0x00, 0x00, 0x00, 0x00, 0x00, 0x02, 0x20, 0x00, 0x00, 0x00, 
  0x24, 0x00, 0x00, 0x00, 0x03, 0x00, 0x00, 0x00, 0x1c, 0xff, 0xff, 0xff, 
  0x01, 0x00, 0x00, 0x00, 0x01, 0x00, 0x00, 0x00, 0x01, 0x00, 0x00, 0x00, 
  0x00, 0x00, 0x00, 0x01, 0x01, 0x00, 0x00, 0x00, 0x1d, 0x00, 0x00, 0x00, 
  0x03, 0x00, 0x00, 0x00, 0x1c, 0x00, 0x00, 0x00, 0x0b, 0x00, 0x00, 0x00, 
  0x0a, 0x00, 0x00, 0x00, 0xde, 0xfe, 0xff, 0xff, 0x14, 0x00, 0x00, 0x00, 
  0x00, 0x00, 0x00, 0x0b, 0x10, 0x00, 0x00, 0x00, 0x14, 0x00, 0x00, 0x00, 
  0x02, 0x00, 0x00, 0x00, 0x6c, 0xde, 0xff, 0xff, 0x01, 0x00, 0x00, 0x00, 
  0x1c, 0x00, 0x00, 0x00, 0x02, 0x00, 0x00, 0x00, 0x1b, 0x00, 0x00, 0x00, 
  0x0c, 0x00, 0x00, 0x00, 0x0e, 0xff, 0xff, 0xff, 0x14, 0x00, 0x00, 0x00, 
  0x00, 0x00, 0x00, 0x15, 0x10, 0x00, 0x00, 0x00, 0x14, 0x00, 0x00, 0x00, 
  0x01, 0x00, 0x00, 0x00, 0x9c, 0xde, 0xff, 0xff, 0x01, 0x00, 0x00, 0x00, 
  0x1b, 0x00, 0x00, 0x00, 0x02, 0x00, 0x00, 0x00, 0x1a, 0x00, 0x00, 0x00, 
  0x0d, 0x00, 0x00, 0x00, 0xfe, 0xfe, 0xff, 0xff, 0x10, 0x00, 0x00, 0x00, 
  0x00, 0x00, 0x00, 0x01, 0x1c, 0x00, 0x00, 0x00, 0x20, 0x00, 0x00, 0x00, 
  0xf0, 0xfe, 0xff, 0xff, 0x00, 0x00, 0x00, 0x01, 0x01, 0x00, 0x00, 0x00, 
  0x01, 0x00, 0x00, 0x00, 0x00, 0x00, 0x00, 0x01, 0x01, 0x00, 0x00, 0x00, 
  0x1a, 0x00, 0x00, 0x00, 0x03, 0x00, 0x00, 0x00, 0x19, 0x00, 0x00, 0x00, 
  0x0f, 0x00, 0x00, 0x00, 0x0e, 0x00, 0x00, 0x00, 0x7e, 0xff, 0xff, 0xff, 
  0x20, 0x00, 0x00, 0x00, 0x00, 0x00, 0x00, 0x02, 0x2c, 0x00, 0x00, 0x00, 
  0x30, 0x00, 0x00, 0x00, 0x03, 0x00, 0x00, 0x00, 0x0c, 0x00, 0x14, 0x00, 
  0x13, 0x00, 0x0c, 0x00, 0x08, 0x00, 0x04, 0x00, 0x0c, 0x00, 0x00, 0x00, 
  0x01, 0x00, 0x00, 0x00, 0x01, 0x00, 0x00, 0x00, 0x01, 0x00, 0x00, 0x00, 
  0x00, 0x00, 0x00, 0x01, 0x01, 0x00, 0x00, 0x00, 0x19, 0x00, 0x00, 0x00, 
  0x03, 0x00, 0x00, 0x00, 0x18, 0x00, 0x00, 0x00, 0x11, 0x00, 0x00, 0x00, 
  0x10, 0x00, 0x00, 0x00, 0xce, 0xff, 0xff, 0xff, 0x14, 0x00, 0x00, 0x00, 
  0x00, 0x00, 0x00, 0x0b, 0x10, 0x00, 0x00, 0x00, 0x14, 0x00, 0x00, 0x00, 
  0x02, 0x00, 0x00, 0x00, 0x5c, 0xdf, 0xff, 0xff, 0x01, 0x00, 0x00, 0x00, 
  0x18, 0x00, 0x00, 0x00, 0x02, 0x00, 0x00, 0x00, 0x17, 0x00, 0x00, 0x00, 
  0x12, 0x00, 0x00, 0x00, 0x00, 0x00, 0x0e, 0x00, 0x18, 0x00, 0x14, 0x00, 
  0x10, 0x00, 0x0c, 0x00, 0x0b, 0x00, 0x04, 0x00, 0x0e, 0x00, 0x00, 0x00, 
  0x14, 0x00, 0x00, 0x00, 0x00, 0x00, 0x00, 0x15, 0x10, 0x00, 0x00, 0x00, 
  0x14, 0x00, 0x00, 0x00, 0x01, 0x00, 0x00, 0x00, 0x9c, 0xdf, 0xff, 0xff, 
  0x01, 0x00, 0x00, 0x00, 0x17, 0x00, 0x00, 0x00, 0x02, 0x00, 0x00, 0x00, 
  0x16, 0x00, 0x00, 0x00, 0x13, 0x00, 0x00, 0x00, 0x00, 0x00, 0x0e, 0x00, 
  0x14, 0x00, 0x00, 0x00, 0x10, 0x00, 0x0c, 0x00, 0x0b, 0x00, 0x04, 0x00, 
  0x0e, 0x00, 0x00, 0x00, 0x1c, 0x00, 0x00, 0x00, 0x00, 0x00, 0x00, 0x01, 
  0x28, 0x00, 0x00, 0x00, 0x2c, 0x00, 0x00, 0x00, 0x0c, 0x00, 0x14, 0x00, 
  0x13, 0x00, 0x0c, 0x00, 0x08, 0x00, 0x07, 0x00, 0x0c, 0x00, 0x00, 0x00, 
  0x00, 0x00, 0x00, 0x01, 0x01, 0x00, 0x00, 0x00, 0x01, 0x00, 0x00, 0x00, 
  0x00, 0x00, 0x00, 0x01, 0x01, 0x00, 0x00, 0x00, 0x16, 0x00, 0x00, 0x00, 
  0x03, 0x00, 0x00, 0x00, 0x00, 0x00, 0x00, 0x00, 0x15, 0x00, 0x00, 0x00, 
  0x14, 0x00, 0x00, 0x00, 0x01, 0x00, 0x00, 0x00, 0x24, 0x00, 0x00, 0x00, 
  0x01, 0x00, 0x00, 0x00, 0x00, 0x00, 0x00, 0x00, 0x25, 0x00, 0x00, 0x00, 
  0x18, 0x20, 0x00, 0x00, 0xbc, 0x1f, 0x00, 0x00, 0x34, 0x1f, 0x00, 0x00, 
  0xc0, 0x1e, 0x00, 0x00, 0x6c, 0x1b, 0x00, 0x00, 0x10, 0x18, 0x00, 0x00, 
  0xac, 0x17, 0x00, 0x00, 0x48, 0x17, 0x00, 0x00, 0x74, 0x15, 0x00, 0x00, 
  0x90, 0x13, 0x00, 0x00, 0x7c, 0x12, 0x00, 0x00, 0x40, 0x11, 0x00, 0x00, 
  0xdc, 0x10, 0x00, 0x00, 0x78, 0x10, 0x00, 0x00, 0x64, 0x0f, 0x00, 0x00, 
  0x40, 0x0e, 0x00, 0x00, 0x8c, 0x0d, 0x00, 0x00, 0xc4, 0x0c, 0x00, 0x00, 
  0x64, 0x0c, 0x00, 0x00, 0x00, 0x0c, 0x00, 0x00, 0x4c, 0x0b, 0x00, 0x00, 
  0x88, 0x0a, 0x00, 0x00, 0xb4, 0x09, 0x00, 0x00, 0x10, 0x09, 0x00, 0x00, 
  0x6c, 0x08, 0x00, 0x00, 0xc0, 0x07, 0x00, 0x00, 0xcc, 0x06, 0x00, 0x00, 
  0x20, 0x06, 0x00, 0x00, 0x74, 0x05, 0x00, 0x00, 0xc0, 0x04, 0x00, 0x00, 
  0xc4, 0x03, 0x00, 0x00, 0x18, 0x03, 0x00, 0x00, 0x6c, 0x02, 0x00, 0x00, 
  0xd8, 0x01, 0x00, 0x00, 0x24, 0x01, 0x00, 0x00, 0x80, 0x00, 0x00, 0x00, 
  0x04, 0x00, 0x00, 0x00, 0x92, 0xe0, 0xff, 0xff, 0x00, 0x00, 0x00, 0x01, 
  0x18, 0x00, 0x00, 0x00, 0x20, 0x00, 0x00, 0x00, 0x3c, 0x00, 0x00, 0x00, 
  0x25, 0x00, 0x00, 0x00, 0x00, 0x00, 0x00, 0x09, 0x50, 0x00, 0x00, 0x00, 
  0x02, 0x00, 0x00, 0x00, 0xff, 0xff, 0xff, 0xff, 0x02, 0x00, 0x00, 0x00, 
  0x74, 0xe0, 0xff, 0xff, 0x08, 0x00, 0x00, 0x00, 0x10, 0x00, 0x00, 0x00, 
  0x01, 0x00, 0x00, 0x00, 0x80, 0xff, 0xff, 0xff, 0xff, 0xff, 0xff, 0xff, 
  0x01, 0x00, 0x00, 0x00, 0x00, 0x00, 0x80, 0x3b, 0x1b, 0x00, 0x00, 0x00, 
  0x53, 0x74, 0x61, 0x74, 0x65, 0x66, 0x75, 0x6c, 0x50, 0x61, 0x72, 0x74, 
  0x69, 0x74, 0x69, 0x6f, 0x6e, 0x65, 0x64, 0x43, 0x61, 0x6c, 0x6c, 0x5f, 
  0x31, 0x3a, 0x30, 0x00, 0x02, 0x00, 0x00, 0x00, 0x01, 0x00, 0x00, 0x00, 
  0x02, 0x00, 0x00, 0x00, 0x0a, 0xe1, 0xff, 0xff, 0x00, 0x00, 0x00, 0x01, 
  0x18, 0x00, 0x00, 0x00, 0x20, 0x00, 0x00, 0x00, 0x40, 0x00, 0x00, 0x00, 
  0x24, 0x00, 0x00, 0x00, 0x00, 0x00, 0x00, 0x09, 0x78, 0x00, 0x00, 0x00, 
  0x02, 0x00, 0x00, 0x00, 0xff, 0xff, 0xff, 0xff, 0x02, 0x00, 0x00, 0x00, 
  0xec, 0xe0, 0xff, 0xff, 0x08, 0x00, 0x00, 0x00, 0x14, 0x00, 0x00, 0x00, 
  0x01, 0x00, 0x00, 0x00, 0x0a, 0x00, 0x00, 0x00, 0x00, 0x00, 0x00, 0x00, 
  0x00, 0x00, 0x00, 0x00, 0x01, 0x00, 0x00, 0x00, 0x47, 0xbf, 0x2b, 0x3c, 
  0x3c, 0x00, 0x00, 0x00, 0x73, 0x65, 0x71, 0x75, 0x65, 0x6e, 0x74, 0x69, 
  0x61, 0x6c, 0x5f, 0x31, 0x2f, 0x64, 0x65, 0x6e, 0x73, 0x65, 0x5f, 0x31, 
  0x5f, 0x32, 0x2f, 0x4d, 0x61, 0x74, 0x4d, 0x75, 0x6c, 0x3b, 0x73, 0x65, 
  0x71, 0x75, 0x65, 0x6e, 0x74, 0x69, 0x61, 0x6c, 0x5f, 0x31, 0x2f, 0x64, 
  0x65, 0x6e, 0x73, 0x65, 0x5f, 0x31, 0x5f, 0x32, 0x2f, 0x42, 0x69, 0x61, 
  0x73, 0x41, 0x64, 0x64, 0x00, 0x00, 0x00, 0x00, 0x02, 0x00, 0x00, 0x00, 
  0x01, 0x00, 0x00, 0x00, 0x02, 0x00, 0x00, 0x00, 0xaa, 0xe1, 0xff, 0xff, 
  0x00, 0x00, 0x00, 0x01, 0x18, 0x00, 0x00, 0x00, 0x20, 0x00, 0x00, 0x00, 
  0x3c, 0x00, 0x00, 0x00, 0x23, 0x00, 0x00, 0x00, 0x00, 0x00, 0x00, 0x09, 
  0x88, 0x00, 0x00, 0x00, 0x02, 0x00, 0x00, 0x00, 0xff, 0xff, 0xff, 0xff, 
  0x40, 0x00, 0x00, 0x00, 0x8c, 0xe1, 0xff, 0xff, 0x08, 0x00, 0x00, 0x00, 
  0x10, 0x00, 0x00, 0x00, 0x01, 0x00, 0x00, 0x00, 0x80, 0xff, 0xff, 0xff, 
  0xff, 0xff, 0xff, 0xff, 0x01, 0x00, 0x00, 0x00, 0xb5, 0x52, 0xa8, 0x3b, 
  0x52, 0x00, 0x00, 0x00, 0x73, 0x65, 0x71, 0x75, 0x65, 0x6e, 0x74, 0x69, 
  0x61, 0x6c, 0x5f, 0x31, 0x2f, 0x64, 0x65, 0x6e, 0x73, 0x65, 0x5f, 0x31, 
  0x2f, 0x4d, 0x61, 0x74, 0x4d, 0x75, 0x6c, 0x3b, 0x73, 0x65, 0x71, 0x75, 
  0x65, 0x6e, 0x74, 0x69, 0x61, 0x6c, 0x5f, 0x31, 0x2f, 0x64, 0x65, 0x6e, 
  0x73, 0x65, 0x5f, 0x31, 0x2f, 0x52, 0x65, 0x6c, 0x75, 0x3b, 0x73, 0x65, 
  0x71, 0x75, 0x65, 0x6e, 0x74, 0x69, 0x61, 0x6c, 0x5f, 0x31, 0x2f, 0x64, 
  0x65, 0x6e, 0x73, 0x65, 0x5f, 0x31, 0x2f, 0x42, 0x69, 0x61, 0x73, 0x41, 
  0x64, 0x64, 0x00, 0x00, 0x02, 0x00, 0x00, 0x00, 0x01, 0x00, 0x00, 0x00, 
  0x40, 0x00, 0x00, 0x00, 0x5a, 0xe2, 0xff, 0xff, 0x00, 0x00, 0x00, 0x01, 
  0x18, 0x00, 0x00, 0x00, 0x20, 0x00, 0x00, 0x00, 0x40, 0x00, 0x00, 0x00, 
  0x22, 0x00, 0x00, 0x00, 0x00, 0x00, 0x00, 0x09, 0x68, 0x00, 0x00, 0x00, 
  0x02, 0x00, 0x00, 0x00, 0xff, 0xff, 0xff, 0xff, 0x20, 0x00, 0x00, 0x00, 
  0x3c, 0xe2, 0xff, 0xff, 0x08, 0x00, 0x00, 0x00, 0x14, 0x00, 0x00, 0x00, 
  0x01, 0x00, 0x00, 0x00, 0xdd, 0xff, 0xff, 0xff, 0xff, 0xff, 0xff, 0xff, 
  0x00, 0x00, 0x00, 0x00, 0x01, 0x00, 0x00, 0x00, 0xfe, 0xa8, 0x01, 0x3c, 
  0x2c, 0x00, 0x00, 0x00, 0x73, 0x65, 0x71, 0x75, 0x65, 0x6e, 0x74, 0x69, 
  0x61, 0x6c, 0x5f, 0x31, 0x2f, 0x67, 0x6c, 0x6f, 0x62, 0x61, 0x6c, 0x5f, 
  0x61, 0x76, 0x65, 0x72, 0x61, 0x67, 0x65, 0x5f, 0x70, 0x6f, 0x6f, 0x6c, 
  0x69, 0x6e, 0x67, 0x32, 0x64, 0x5f, 0x31, 0x2f, 0x4d, 0x65, 0x61, 0x6e, 
  0x00, 0x00, 0x00, 0x00, 0x02, 0x00, 0x00, 0x00, 0x01, 0x00, 0x00, 0x00, 
  0x20, 0x00, 0x00, 0x00, 0xea, 0xe2, 0xff, 0xff, 0x00, 0x00, 0x00, 0x01, 
  0x18, 0x00, 0x00, 0x00, 0x28, 0x00, 0x00, 0x00, 0x48, 0x00, 0x00, 0x00, 
  0x21, 0x00, 0x00, 0x00, 0x00, 0x00, 0x00, 0x09, 0x78, 0x00, 0x00, 0x00, 
  0x04, 0x00, 0x00, 0x00, 0xff, 0xff, 0xff, 0xff, 0x5a, 0x00, 0x00, 0x00, 
  0x5a, 0x00, 0x00, 0x00, 0x20, 0x00, 0x00, 0x00, 0xd4, 0xe2, 0xff, 0xff, 
  0x08, 0x00, 0x00, 0x00, 0x14, 0x00, 0x00, 0x00, 0x01, 0x00, 0x00, 0x00, 
  0x8e, 0xff, 0xff, 0xff, 0xff, 0xff, 0xff, 0xff, 0x00, 0x00, 0x00, 0x00, 
  0x01, 0x00, 0x00, 0x00, 0x5e, 0x60, 0x79, 0x3d, 0x34, 0x00, 0x00, 0x00, 
  0x73, 0x65, 0x71, 0x75, 0x65, 0x6e, 0x74, 0x69, 0x61, 0x6c, 0x5f, 0x31, 
  0x2f, 0x62, 0x61, 0x74, 0x63, 0x68, 0x5f, 0x6e, 0x6f, 0x72, 0x6d, 0x61, 
  0x6c, 0x69, 0x7a, 0x61, 0x74, 0x69, 0x6f, 0x6e, 0x5f, 0x32, 0x5f, 0x31, 
  0x2f, 0x62, 0x61, 0x74, 0x63, 0x68, 0x6e, 0x6f, 0x72, 0x6d, 0x2f, 0x61, 
  0x64, 0x64, 0x5f, 0x31, 0x00, 0x00, 0x00, 0x00, 0x04, 0x00, 0x00, 0x00, 
  0x01, 0x00, 0x00, 0x00, 0x5a, 0x00, 0x00, 0x00, 0x5a, 0x00, 0x00, 0x00, 
  0x20, 0x00, 0x00, 0x00, 0x92, 0xe3, 0xff, 0xff, 0x00, 0x00, 0x00, 0x01, 
  0x18, 0x00, 0x00, 0x00, 0x28, 0x00, 0x00, 0x00, 0x48, 0x00, 0x00, 0x00, 
  0x20, 0x00, 0x00, 0x00, 0x00, 0x00, 0x00, 0x09, 0x78, 0x00, 0x00, 0x00, 
  0x04, 0x00, 0x00, 0x00, 0xff, 0xff, 0xff, 0xff, 0x5a, 0x00, 0x00, 0x00, 
  0x5a, 0x00, 0x00, 0x00, 0x20, 0x00, 0x00, 0x00, 0x7c, 0xe3, 0xff, 0xff, 
  0x08, 0x00, 0x00, 0x00, 0x14, 0x00, 0x00, 0x00, 0x01, 0x00, 0x00, 0x00, 
  0x8d, 0xff, 0xff, 0xff, 0xff, 0xff, 0xff, 0xff, 0x00, 0x00, 0x00, 0x00, 
  0x01, 0x00, 0x00, 0x00, 0xc1, 0x7d, 0x82, 0x3d, 0x34, 0x00, 0x00, 0x00, 
  0x73, 0x65, 0x71, 0x75, 0x65, 0x6e, 0x74, 0x69, 0x61, 0x6c, 0x5f, 0x31, 
  0x2f, 0x62, 0x61, 0x74, 0x63, 0x68, 0x5f, 0x6e, 0x6f, 0x72, 0x6d, 0x61, 
  0x6c, 0x69, 0x7a, 0x61, 0x74, 0x69, 0x6f, 0x6e, 0x5f, 0x32, 0x5f, 0x31, 
  0x2f, 0x62, 0x61, 0x74, 0x63, 0x68, 0x6e, 0x6f, 0x72, 0x6d, 0x2f, 0x6d, 
  0x75, 0x6c, 0x5f, 0x31, 0x00, 0x00, 0x00, 0x00, 0x04, 0x00, 0x00, 0x00, 
  0x01, 0x00, 0x00, 0x00, 0x5a, 0x00, 0x00, 0x00, 0x5a, 0x00, 0x00, 0x00, 
  0x20, 0x00, 0x00, 0x00, 0x3a, 0xe4, 0xff, 0xff, 0x00, 0x00, 0x00, 0x01, 
  0x18, 0x00, 0x00, 0x00, 0x28, 0x00, 0x00, 0x00, 0x48, 0x00, 0x00, 0x00, 
  0x1f, 0x00, 0x00, 0x00, 0x00, 0x00, 0x00, 0x09, 0xc8, 0x00, 0x00, 0x00, 
  0x04, 0x00, 0x00, 0x00, 0xff, 0xff, 0xff, 0xff, 0x5a, 0x00, 0x00, 0x00, 
  0x5a, 0x00, 0x00, 0x00, 0x20, 0x00, 0x00, 0x00, 0x24, 0xe4, 0xff, 0xff, 
  0x08, 0x00, 0x00, 0x00, 0x14, 0x00, 0x00, 0x00, 0x01, 0x00, 0x00, 0x00, 
  0x80, 0xff, 0xff, 0xff, 0xff, 0xff, 0xff, 0xff, 0x00, 0x00, 0x00, 0x00, 
  0x01, 0x00, 0x00, 0x00, 0x3c, 0x5f, 0x77, 0x3d, 0x84, 0x00, 0x00, 0x00, 
  0x73, 0x65, 0x71, 0x75, 0x65, 0x6e, 0x74, 0x69, 0x61, 0x6c, 0x5f, 0x31, 
  0x2f, 0x73, 0x65, 0x70, 0x61, 0x72, 0x61, 0x62, 0x6c, 0x65, 0x5f, 0x63, 
  0x6f, 0x6e, 0x76, 0x32, 0x64, 0x5f, 0x31, 0x5f, 0x32, 0x2f, 0x52, 0x65, 
  0x6c, 0x75, 0x3b, 0x73, 0x65, 0x71, 0x75, 0x65, 0x6e, 0x74, 0x69, 0x61, 
  0x6c, 0x5f, 0x31, 0x2f, 0x73, 0x65, 0x70, 0x61, 0x72, 0x61, 0x62, 0x6c, 
  0x65, 0x5f, 0x63, 0x6f, 0x6e, 0x76, 0x32, 0x64, 0x5f, 0x31, 0x5f, 0x32, 
  0x2f, 0x42, 0x69, 0x61, 0x73, 0x41, 0x64, 0x64, 0x3b, 0x73, 0x65, 0x71, 
  0x75, 0x65, 0x6e, 0x74, 0x69, 0x61, 0x6c, 0x5f, 0x31, 0x2f, 0x73, 0x65, 
  0x70, 0x61, 0x72, 0x61, 0x62, 0x6c, 0x65, 0x5f, 0x63, 0x6f, 0x6e, 0x76, 
  0x32, 0x64, 0x5f, 0x31, 0x5f, 0x32, 0x2f, 0x73, 0x65, 0x70, 0x61, 0x72, 
  0x61, 0x62, 0x6c, 0x65, 0x5f, 0x63, 0x6f, 0x6e, 0x76, 0x32, 0x64, 0x3b, 
  0x00, 0x00, 0x00, 0x00, 0x04, 0x00, 0x00, 0x00, 0x01, 0x00, 0x00, 0x00, 
  0x5a, 0x00, 0x00, 0x00, 0x5a, 0x00, 0x00, 0x00, 0x20, 0x00, 0x00, 0x00, 
  0x32, 0xe5, 0xff, 0xff, 0x00, 0x00, 0x00, 0x01, 0x18, 0x00, 0x00, 0x00, 
  0x28, 0x00, 0x00, 0x00, 0x48, 0x00, 0x00, 0x00, 0x1e, 0x00, 0x00, 0x00, 
  0x00, 0x00, 0x00, 0x09, 0x80, 0x00, 0x00, 0x00, 0x04, 0x00, 0x00, 0x00, 
  0xff, 0xff, 0xff, 0xff, 0x5a, 0x00, 0x00, 0x00, 0x5a, 0x00, 0x00, 0x00, 
  0x10, 0x00, 0x00, 0x00, 0x1c, 0xe5, 0xff, 0xff, 0x08, 0x00, 0x00, 0x00, 
  0x14, 0x00, 0x00, 0x00, 0x01, 0x00, 0x00, 0x00, 0xe7, 0xff, 0xff, 0xff, 
  0xff, 0xff, 0xff, 0xff, 0x00, 0x00, 0x00, 0x00, 0x01, 0x00, 0x00, 0x00, 
  0x69, 0xec, 0x9a, 0x3d, 0x3c, 0x00, 0x00, 0x00, 0x73, 0x65, 0x71, 0x75, 
  0x65, 0x6e, 0x74, 0x69, 0x61, 0x6c, 0x5f, 0x31, 0x2f, 0x73, 0x65, 0x70, 
  0x61, 0x72, 0x61, 0x62, 0x6c, 0x65, 0x5f, 0x63, 0x6f, 0x6e, 0x76, 0x32, 
  0x64, 0x5f, 0x31, 0x5f, 0x32, 0x2f, 0x73, 0x65, 0x70, 0x61, 0x72, 0x61, 
  0x62, 0x6c, 0x65, 0x5f, 0x63, 0x6f, 0x6e, 0x76, 0x32, 0x64, 0x2f, 0x64, 
  0x65, 0x70, 0x74, 0x68, 0x77, 0x69, 0x73, 0x65, 0x00, 0x00, 0x00, 0x00, 
  0x04, 0x00, 0x00, 0x00, 0x01, 0x00, 0x00, 0x00, 0x5a, 0x00, 0x00, 0x00, 
  0x5a, 0x00, 0x00, 0x00, 0x10, 0x00, 0x00, 0x00, 0xe2, 0xe5, 0xff, 0xff, 
  0x00, 0x00, 0x00, 0x01, 0x18, 0x00, 0x00, 0x00, 0x28, 0x00, 0x00, 0x00, 
  0x48, 0x00, 0x00, 0x00, 0x1d, 0x00, 0x00, 0x00, 0x00, 0x00, 0x00, 0x09, 
  0x78, 0x00, 0x00, 0x00, 0x04, 0x00, 0x00, 0x00, 0xff, 0xff, 0xff, 0xff, 
  0x5c, 0x00, 0x00, 0x00, 0x5c, 0x00, 0x00, 0x00, 0x10, 0x00, 0x00, 0x00, 
  0xcc, 0xe5, 0xff, 0xff, 0x08, 0x00, 0x00, 0x00, 0x14, 0x00, 0x00, 0x00, 
  0x01, 0x00, 0x00, 0x00, 0x8c, 0xff, 0xff, 0xff, 0xff, 0xff, 0xff, 0xff, 
  0x00, 0x00, 0x00, 0x00, 0x01, 0x00, 0x00, 0x00, 0x84, 0x8c, 0x8d, 0x3d, 
  0x34, 0x00, 0x00, 0x00, 0x73, 0x65, 0x71, 0x75, 0x65, 0x6e, 0x74, 0x69, 
  0x61, 0x6c, 0x5f, 0x31, 0x2f, 0x62, 0x61, 0x74, 0x63, 0x68, 0x5f, 0x6e, 
  0x6f, 0x72, 0x6d, 0x61, 0x6c, 0x69, 0x7a, 0x61, 0x74, 0x69, 0x6f, 0x6e, 
  0x5f, 0x31, 0x5f, 0x32, 0x2f, 0x62, 0x61, 0x74, 0x63, 0x68, 0x6e, 0x6f, 
  0x72, 0x6d, 0x2f, 0x61, 0x64, 0x64, 0x5f, 0x31, 0x00, 0x00, 0x00, 0x00, 
  0x04, 0x00, 0x00, 0x00, 0x01, 0x00, 0x00, 0x00, 0x5c, 0x00, 0x00, 0x00, 
  0x5c, 0x00, 0x00, 0x00, 0x10, 0x00, 0x00, 0x00, 0x8a, 0xe6, 0xff, 0xff, 
  0x00, 0x00, 0x00, 0x01, 0x18, 0x00, 0x00, 0x00, 0x28, 0x00, 0x00, 0x00, 
  0x48, 0x00, 0x00, 0x00, 0x1c, 0x00, 0x00, 0x00, 0x00, 0x00, 0x00, 0x09, 
  0x78, 0x00, 0x00, 0x00, 0x04, 0x00, 0x00, 0x00, 0xff, 0xff, 0xff, 0xff, 
  0x5c, 0x00, 0x00, 0x00, 0x5c, 0x00, 0x00, 0x00, 0x10, 0x00, 0x00, 0x00, 
  0x74, 0xe6, 0xff, 0xff, 0x08, 0x00, 0x00, 0x00, 0x14, 0x00, 0x00, 0x00, 
  0x01, 0x00, 0x00, 0x00, 0x8c, 0xff, 0xff, 0xff, 0xff, 0xff, 0xff, 0xff, 
  0x00, 0x00, 0x00, 0x00, 0x01, 0x00, 0x00, 0x00, 0x77, 0x53, 0x91, 0x3d, 
  0x34, 0x00, 0x00, 0x00, 0x73, 0x65, 0x71, 0x75, 0x65, 0x6e, 0x74, 0x69, 
  0x61, 0x6c, 0x5f, 0x31, 0x2f, 0x62, 0x61, 0x74, 0x63, 0x68, 0x5f, 0x6e, 
  0x6f, 0x72, 0x6d, 0x61, 0x6c, 0x69, 0x7a, 0x61, 0x74, 0x69, 0x6f, 0x6e, 
  0x5f, 0x31, 0x5f, 0x32, 0x2f, 0x62, 0x61, 0x74, 0x63, 0x68, 0x6e, 0x6f, 
  0x72, 0x6d, 0x2f, 0x6d, 0x75, 0x6c, 0x5f, 0x31, 0x00, 0x00, 0x00, 0x00, 
  0x04, 0x00, 0x00, 0x00, 0x01, 0x00, 0x00, 0x00, 0x5c, 0x00, 0x00, 0x00, 
  0x5c, 0x00, 0x00, 0x00, 0x10, 0x00, 0x00, 0x00, 0x32, 0xe7, 0xff, 0xff, 
  0x00, 0x00, 0x00, 0x01, 0x18, 0x00, 0x00, 0x00, 0x28, 0x00, 0x00, 0x00, 
  0x48, 0x00, 0x00, 0x00, 0x1b, 0x00, 0x00, 0x00, 0x00, 0x00, 0x00, 0x09, 
  0xc0, 0x00, 0x00, 0x00, 0x04, 0x00, 0x00, 0x00, 0xff, 0xff, 0xff, 0xff, 
  0x5c, 0x00, 0x00, 0x00, 0x5c, 0x00, 0x00, 0x00, 0x10, 0x00, 0x00, 0x00, 
  0x1c, 0xe7, 0xff, 0xff, 0x08, 0x00, 0x00, 0x00, 0x14, 0x00, 0x00, 0x00, 
  0x01, 0x00, 0x00, 0x00, 0x80, 0xff, 0xff, 0xff, 0xff, 0xff, 0xff, 0xff, 
  0x00, 0x00, 0x00, 0x00, 0x01, 0x00, 0x00, 0x00, 0x3d, 0x89, 0x8a, 0x3d, 
  0x7e, 0x00, 0x00, 0x00, 0x73, 0x65, 0x71, 0x75, 0x65, 0x6e, 0x74, 0x69, 
  0x61, 0x6c, 0x5f, 0x31, 0x2f, 0x73, 0x65, 0x70, 0x61, 0x72, 0x61, 0x62, 
  0x6c, 0x65, 0x5f, 0x63, 0x6f, 0x6e, 0x76, 0x32, 0x64, 0x5f, 0x31, 0x2f, 
  0x52, 0x65, 0x6c, 0x75, 0x3b, 0x73, 0x65, 0x71, 0x75, 0x65, 0x6e, 0x74, 
  0x69, 0x61, 0x6c, 0x5f, 0x31, 0x2f, 0x73, 0x65, 0x70, 0x61, 0x72, 0x61, 
  0x62, 0x6c, 0x65, 0x5f, 0x63, 0x6f, 0x6e, 0x76, 0x32, 0x64, 0x5f, 0x31, 
  0x2f, 0x42, 0x69, 0x61, 0x73, 0x41, 0x64, 0x64, 0x3b, 0x73, 0x65, 0x71, 
  0x75, 0x65, 0x6e, 0x74, 0x69, 0x61, 0x6c, 0x5f, 0x31, 0x2f, 0x73, 0x65, 
  0x70, 0x61, 0x72, 0x61, 0x62, 0x6c, 0x65, 0x5f, 0x63, 0x6f, 0x6e, 0x76, 
  0x32, 0x64, 0x5f, 0x31, 0x2f, 0x73, 0x65, 0x70, 0x61, 0x72, 0x61, 0x62, 
  0x6c, 0x65, 0x5f, 0x63, 0x6f, 0x6e, 0x76, 0x32, 0x64, 0x3b, 0x00, 0x00, 
  0x04, 0x00, 0x00, 0x00, 0x01, 0x00, 0x00, 0x00, 0x5c, 0x00, 0x00, 0x00, 
  0x5c, 0x00, 0x00, 0x00, 0x10, 0x00, 0x00, 0x00, 0x22, 0xe8, 0xff, 0xff, 
  0x00, 0x00, 0x00, 0x01, 0x18, 0x00, 0x00, 0x00, 0x28, 0x00, 0x00, 0x00, 
  0x44, 0x00, 0x00, 0x00, 0x1a, 0x00, 0x00, 0x00, 0x00, 0x00, 0x00, 0x09, 
  0x78, 0x00, 0x00, 0x00, 0x04, 0x00, 0x00, 0x00, 0xff, 0xff, 0xff, 0xff, 
  0x5c, 0x00, 0x00, 0x00, 0x5c, 0x00, 0x00, 0x00, 0x08, 0x00, 0x00, 0x00, 
  0x0c, 0xe8, 0xff, 0xff, 0x08, 0x00, 0x00, 0x00, 0x10, 0x00, 0x00, 0x00, 
  0x01, 0x00, 0x00, 0x00, 0x1f, 0x00, 0x00, 0x00, 0x00, 0x00, 0x00, 0x00, 
  0x01, 0x00, 0x00, 0x00, 0xbd, 0xdb, 0x86, 0x3d, 0x3a, 0x00, 0x00, 0x00, 
  0x73, 0x65, 0x71, 0x75, 0x65, 0x6e, 0x74, 0x69, 0x61, 0x6c, 0x5f, 0x31, 
  0x2f, 0x73, 0x65, 0x70, 0x61, 0x72, 0x61, 0x62, 0x6c, 0x65, 0x5f, 0x63, 
  0x6f, 0x6e, 0x76, 0x32, 0x64, 0x5f, 0x31, 0x2f, 0x73, 0x65, 0x70, 0x61, 
  0x72, 0x61, 0x62, 0x6c, 0x65, 0x5f, 0x63, 0x6f, 0x6e, 0x76, 0x32, 0x64, 
  0x2f, 0x64, 0x65, 0x70, 0x74, 0x68, 0x77, 0x69, 0x73, 0x65, 0x00, 0x00, 
  0x04, 0x00, 0x00, 0x00, 0x01, 0x00, 0x00, 0x00, 0x5c, 0x00, 0x00, 0x00, 
  0x5c, 0x00, 0x00, 0x00, 0x08, 0x00, 0x00, 0x00, 0xca, 0xe8, 0xff, 0xff, 
  0x00, 0x00, 0x00, 0x01, 0x18, 0x00, 0x00, 0x00, 0x28, 0x00, 0x00, 0x00, 
  0x44, 0x00, 0x00, 0x00, 0x19, 0x00, 0x00, 0x00, 0x00, 0x00, 0x00, 0x09, 
  0x70, 0x00, 0x00, 0x00, 0x04, 0x00, 0x00, 0x00, 0xff, 0xff, 0xff, 0xff, 
  0x5e, 0x00, 0x00, 0x00, 0x5e, 0x00, 0x00, 0x00, 0x08, 0x00, 0x00, 0x00, 
  0xb4, 0xe8, 0xff, 0xff, 0x08, 0x00, 0x00, 0x00, 0x10, 0x00, 0x00, 0x00, 
  0x01, 0x00, 0x00, 0x00, 0x9c, 0xff, 0xff, 0xff, 0xff, 0xff, 0xff, 0xff, 
  0x01, 0x00, 0x00, 0x00, 0x86, 0xe4, 0x93, 0x3d, 0x32, 0x00, 0x00, 0x00, 
  0x73, 0x65, 0x71, 0x75, 0x65, 0x6e, 0x74, 0x69, 0x61, 0x6c, 0x5f, 0x31, 
  0x2f, 0x62, 0x61, 0x74, 0x63, 0x68, 0x5f, 0x6e, 0x6f, 0x72, 0x6d, 0x61, 
  0x6c, 0x69, 0x7a, 0x61, 0x74, 0x69, 0x6f, 0x6e, 0x5f, 0x31, 0x2f, 0x62, 
  0x61, 0x74, 0x63, 0x68, 0x6e, 0x6f, 0x72, 0x6d, 0x2f, 0x61, 0x64, 0x64, 
  0x5f, 0x31, 0x00, 0x00, 0x04, 0x00, 0x00, 0x00, 0x01, 0x00, 0x00, 0x00, 
  0x5e, 0x00, 0x00, 0x00, 0x5e, 0x00, 0x00, 0x00, 0x08, 0x00, 0x00, 0x00, 
  0x6a, 0xe9, 0xff, 0xff, 0x00, 0x00, 0x00, 0x01, 0x18, 0x00, 0x00, 0x00, 
  0x28, 0x00, 0x00, 0x00, 0x44, 0x00, 0x00, 0x00, 0x18, 0x00, 0x00, 0x00, 
  0x00, 0x00, 0x00, 0x09, 0x70, 0x00, 0x00, 0x00, 0x04, 0x00, 0x00, 0x00, 
  0xff, 0xff, 0xff, 0xff, 0x5e, 0x00, 0x00, 0x00, 0x5e, 0x00, 0x00, 0x00, 
  0x08, 0x00, 0x00, 0x00, 0x54, 0xe9, 0xff, 0xff, 0x08, 0x00, 0x00, 0x00, 
  0x10, 0x00, 0x00, 0x00, 0x01, 0x00, 0x00, 0x00, 0x9c, 0xff, 0xff, 0xff, 
  0xff, 0xff, 0xff, 0xff, 0x01, 0x00, 0x00, 0x00, 0xe6, 0x89, 0x94, 0x3d, 
  0x32, 0x00, 0x00, 0x00, 0x73, 0x65, 0x71, 0x75, 0x65, 0x6e, 0x74, 0x69, 
  0x61, 0x6c, 0x5f, 0x31, 0x2f, 0x62, 0x61, 0x74, 0x63, 0x68, 0x5f, 0x6e, 
  0x6f, 0x72, 0x6d, 0x61, 0x6c, 0x69, 0x7a, 0x61, 0x74, 0x69, 0x6f, 0x6e, 
  0x5f, 0x31, 0x2f, 0x62, 0x61, 0x74, 0x63, 0x68, 0x6e, 0x6f, 0x72, 0x6d, 
  0x2f, 0x6d, 0x75, 0x6c, 0x5f, 0x31, 0x00, 0x00, 0x04, 0x00, 0x00, 0x00, 
  0x01, 0x00, 0x00, 0x00, 0x5e, 0x00, 0x00, 0x00, 0x5e, 0x00, 0x00, 0x00, 
  0x08, 0x00, 0x00, 0x00, 0x0a, 0xea, 0xff, 0xff, 0x00, 0x00, 0x00, 0x01, 
  0x18, 0x00, 0x00, 0x00, 0x28, 0x00, 0x00, 0x00, 0x48, 0x00, 0x00, 0x00, 
  0x17, 0x00, 0x00, 0x00, 0x00, 0x00, 0x00, 0x09, 0xa0, 0x00, 0x00, 0x00, 
  0x04, 0x00, 0x00, 0x00, 0xff, 0xff, 0xff, 0xff, 0x5e, 0x00, 0x00, 0x00, 
  0x5e, 0x00, 0x00, 0x00, 0x08, 0x00, 0x00, 0x00, 0xf4, 0xe9, 0xff, 0xff, 
  0x08, 0x00, 0x00, 0x00, 0x14, 0x00, 0x00, 0x00, 0x01, 0x00, 0x00, 0x00, 
  0x80, 0xff, 0xff, 0xff, 0xff, 0xff, 0xff, 0xff, 0x00, 0x00, 0x00, 0x00, 
  0x01, 0x00, 0x00, 0x00, 0xc9, 0x19, 0x84, 0x3d, 0x5c, 0x00, 0x00, 0x00, 
  0x73, 0x65, 0x71, 0x75, 0x65, 0x6e, 0x74, 0x69, 0x61, 0x6c, 0x5f, 0x31, 
  0x2f, 0x63, 0x6f, 0x6e, 0x76, 0x32, 0x64, 0x5f, 0x31, 0x2f, 0x52, 0x65, 
  0x6c, 0x75, 0x3b, 0x73, 0x65, 0x71, 0x75, 0x65, 0x6e, 0x74, 0x69, 0x61, 
  0x6c, 0x5f, 0x31, 0x2f, 0x63, 0x6f, 0x6e, 0x76, 0x32, 0x64, 0x5f, 0x31, 
  0x2f, 0x42, 0x69, 0x61, 0x73, 0x41, 0x64, 0x64, 0x3b, 0x73, 0x65, 0x71, 
  0x75, 0x65, 0x6e, 0x74, 0x69, 0x61, 0x6c, 0x5f, 0x31, 0x2f, 0x63, 0x6f, 
  0x6e, 0x76, 0x32, 0x64, 0x5f, 0x31, 0x2f, 0x63, 0x6f, 0x6e, 0x76, 0x6f, 
  0x6c, 0x75, 0x74, 0x69, 0x6f, 0x6e, 0x3b, 0x31, 0x00, 0x00, 0x00, 0x00, 
  0x04, 0x00, 0x00, 0x00, 0x01, 0x00, 0x00, 0x00, 0x5e, 0x00, 0x00, 0x00, 
  0x5e, 0x00, 0x00, 0x00, 0x08, 0x00, 0x00, 0x00, 0x32, 0xeb, 0xff, 0xff, 
  0x00, 0x00, 0x00, 0x01, 0x14, 0x00, 0x00, 0x00, 0x88, 0x00, 0x00, 0x00, 
  0x16, 0x00, 0x00, 0x00, 0x00, 0x00, 0x00, 0x09, 0x94, 0x00, 0x00, 0x00, 
  0xac, 0xea, 0xff, 0xff, 0x08, 0x00, 0x00, 0x00, 0x4c, 0x00, 0x00, 0x00, 
  0x08, 0x00, 0x00, 0x00, 0x00, 0x00, 0x00, 0x00, 0x00, 0x00, 0x00, 0x00, 
  0x00, 0x00, 0x00, 0x00, 0x00, 0x00, 0x00, 0x00, 0x00, 0x00, 0x00, 0x00, 
  0x00, 0x00, 0x00, 0x00, 0x00, 0x00, 0x00, 0x00, 0x00, 0x00, 0x00, 0x00, 
  0x00, 0x00, 0x00, 0x00, 0x00, 0x00, 0x00, 0x00, 0x00, 0x00, 0x00, 0x00, 
  0x00, 0x00, 0x00, 0x00, 0x00, 0x00, 0x00, 0x00, 0x00, 0x00, 0x00, 0x00, 
  0x00, 0x00, 0x00, 0x00, 0x00, 0x00, 0x00, 0x00, 0x00, 0x00, 0x00, 0x00, 
  0x08, 0x00, 0x00, 0x00, 0x7b, 0xbd, 0x02, 0x3b, 0x19, 0x63, 0x13, 0x3b, 
  0xf1, 0x3b, 0x0f, 0x3b, 0x21, 0xfe, 0xc5, 0x3a, 0xbc, 0xba, 0x08, 0x3b, 
  0x9f, 0x69, 0x06, 0x3b, 0x0c, 0xa9, 0x0d, 0x3b, 0x0d, 0x82, 0x06, 0x3b, 
  0x13, 0x00, 0x00, 0x00, 0x74, 0x66, 0x6c, 0x2e, 0x70, 0x73, 0x65, 0x75, 
  0x64, 0x6f, 0x5f, 0x71, 0x63, 0x6f, 0x6e, 0x73, 0x74, 0x31, 0x39, 0x00, 
  0x04, 0x00, 0x00, 0x00, 0x08, 0x00, 0x00, 0x00, 0x03, 0x00, 0x00, 0x00, 
  0x03, 0x00, 0x00, 0x00, 0x01, 0x00, 0x00, 0x00, 0xf2, 0xeb, 0xff, 0xff, 
  0x00, 0x00, 0x00, 0x01, 0x14, 0x00, 0x00, 0x00, 0x84, 0x00, 0x00, 0x00, 
  0x15, 0x00, 0x00, 0x00, 0x00, 0x00, 0x00, 0x02, 0x90, 0x00, 0x00, 0x00, 
  0x6c, 0xeb, 0xff, 0xff, 0x08, 0x00, 0x00, 0x00, 0x48, 0x00, 0x00, 0x00, 
  0x08, 0x00, 0x00, 0x00, 0x00, 0x00, 0x00, 0x00, 0x00, 0x00, 0x00, 0x00, 
  0x00, 0x00, 0x00, 0x00, 0x00, 0x00, 0x00, 0x00, 0x00, 0x00, 0x00, 0x00, 
  0x00, 0x00, 0x00, 0x00, 0x00, 0x00, 0x00, 0x00, 0x00, 0x00, 0x00, 0x00, 
  0x00, 0x00, 0x00, 0x00, 0x00, 0x00, 0x00, 0x00, 0x00, 0x00, 0x00, 0x00, 
  0x00, 0x00, 0x00, 0x00, 0x00, 0x00, 0x00, 0x00, 0x00, 0x00, 0x00, 0x00, 
  0x00, 0x00, 0x00, 0x00, 0x00, 0x00, 0x00, 0x00, 0x08, 0x00, 0x00, 0x00, 
  0x60, 0x3d, 0x03, 0x37, 0x47, 0xf3, 0x13, 0x37, 0x0f, 0xc8, 0x0f, 0x37, 
  0xd0, 0xbf, 0xc6, 0x36, 0x7d, 0x40, 0x09, 0x37, 0x1c, 0xed, 0x06, 0x37, 
  0xa0, 0x33, 0x0e, 0x37, 0xa2, 0x05, 0x07, 0x37, 0x13, 0x00, 0x00, 0x00, 
  0x74, 0x66, 0x6c, 0x2e, 0x70, 0x73, 0x65, 0x75, 0x64, 0x6f, 0x5f, 0x71, 
  0x63, 0x6f, 0x6e, 0x73, 0x74, 0x31, 0x38, 0x00, 0x01, 0x00, 0x00, 0x00, 
  0x08, 0x00, 0x00, 0x00, 0xa2, 0xec, 0xff, 0xff, 0x00, 0x00, 0x00, 0x01, 
  0x14, 0x00, 0x00, 0x00, 0x34, 0x00, 0x00, 0x00, 0x14, 0x00, 0x00, 0x00, 
  0x00, 0x00, 0x00, 0x09, 0x40, 0x00, 0x00, 0x00, 0x1c, 0xec, 0xff, 0xff, 
  0x08, 0x00, 0x00, 0x00, 0x14, 0x00, 0x00, 0x00, 0x01, 0x00, 0x00, 0x00, 
  0x80, 0xff, 0xff, 0xff, 0xff, 0xff, 0xff, 0xff, 0x00, 0x00, 0x00, 0x00, 
  0x01, 0x00, 0x00, 0x00, 0x75, 0xf8, 0x00, 0x3e, 0x13, 0x00, 0x00, 0x00, 
  0x74, 0x66, 0x6c, 0x2e, 0x70, 0x73, 0x65, 0x75, 0x64, 0x6f, 0x5f, 0x71, 
  0x63, 0x6f, 0x6e, 0x73, 0x74, 0x31, 0x37, 0x00, 0x01, 0x00, 0x00, 0x00, 
  0x08, 0x00, 0x00, 0x00, 0x02, 0xed, 0xff, 0xff, 0x00, 0x00, 0x00, 0x01, 
  0x14, 0x00, 0x00, 0x00, 0x30, 0x00, 0x00, 0x00, 0x13, 0x00, 0x00, 0x00, 
  0x00, 0x00, 0x00, 0x09, 0x3c, 0x00, 0x00, 0x00, 0x7c, 0xec, 0xff, 0xff, 
  0x08, 0x00, 0x00, 0x00, 0x10, 0x00, 0x00, 0x00, 0x01, 0x00, 0x00, 0x00, 
  0x7f, 0x00, 0x00, 0x00, 0x00, 0x00, 0x00, 0x00, 0x01, 0x00, 0x00, 0x00, 
  0xe8, 0x80, 0x03, 0x3c, 0x13, 0x00, 0x00, 0x00, 0x74, 0x66, 0x6c, 0x2e, 
  0x70, 0x73, 0x65, 0x75, 0x64, 0x6f, 0x5f, 0x71, 0x63, 0x6f, 0x6e, 0x73, 
  0x74, 0x31, 0x36, 0x00, 0x01, 0x00, 0x00, 0x00, 0x08, 0x00, 0x00, 0x00, 
  0x5e, 0xed, 0xff, 0xff, 0x00, 0x00, 0x00, 0x01, 0x14, 0x00, 0x00, 0x00, 
  0x8c, 0x00, 0x00, 0x00, 0x12, 0x00, 0x00, 0x00, 0x00, 0x00, 0x00, 0x09, 
  0x98, 0x00, 0x00, 0x00, 0x9a, 0xfb, 0xff, 0xff, 0x03, 0x00, 0x00, 0x00, 
  0x08, 0x00, 0x00, 0x00, 0x4c, 0x00, 0x00, 0x00, 0x08, 0x00, 0x00, 0x00, 
  0x00, 0x00, 0x00, 0x00, 0x00, 0x00, 0x00, 0x00, 0x00, 0x00, 0x00, 0x00, 
  0x00, 0x00, 0x00, 0x00, 0x00, 0x00, 0x00, 0x00, 0x00, 0x00, 0x00, 0x00, 
  0x00, 0x00, 0x00, 0x00, 0x00, 0x00, 0x00, 0x00, 0x00, 0x00, 0x00, 0x00, 
  0x00, 0x00, 0x00, 0x00, 0x00, 0x00, 0x00, 0x00, 0x00, 0x00, 0x00, 0x00, 
  0x00, 0x00, 0x00, 0x00, 0x00, 0x00, 0x00, 0x00, 0x00, 0x00, 0x00, 0x00, 
  0x00, 0x00, 0x00, 0x00, 0x00, 0x00, 0x00, 0x00, 0x08, 0x00, 0x00, 0x00, 
  0xd3, 0x4e, 0xfb, 0x3a, 0x73, 0x5b, 0x1d, 0x3b, 0x21, 0x7f, 0x61, 0x3b, 
  0xa2, 0x2c, 0xfe, 0x3a, 0x05, 0x5d, 0x18, 0x3b, 0x14, 0x43, 0x19, 0x3b, 
  0xaf, 0x20, 0xdc, 0x3a, 0x79, 0x29, 0xe7, 0x3a, 0x13, 0x00, 0x00, 0x00, 
  0x74, 0x66, 0x6c, 0x2e, 0x70, 0x73, 0x65, 0x75, 0x64, 0x6f, 0x5f, 0x71, 
  0x63, 0x6f, 0x6e, 0x73, 0x74, 0x31, 0x35, 0x00, 0x04, 0x00, 0x00, 0x00, 
  0x01, 0x00, 0x00, 0x00, 0x03, 0x00, 0x00, 0x00, 0x03, 0x00, 0x00, 0x00, 
  0x08, 0x00, 0x00, 0x00, 0x22, 0xee, 0xff, 0xff, 0x00, 0x00, 0x00, 0x01, 
  0x14, 0x00, 0x00, 0x00, 0x84, 0x00, 0x00, 0x00, 0x11, 0x00, 0x00, 0x00, 
  0x00, 0x00, 0x00, 0x02, 0x90, 0x00, 0x00, 0x00, 0x9c, 0xed, 0xff, 0xff, 
  0x08, 0x00, 0x00, 0x00, 0x48, 0x00, 0x00, 0x00, 0x08, 0x00, 0x00, 0x00, 
  0x00, 0x00, 0x00, 0x00, 0x00, 0x00, 0x00, 0x00, 0x00, 0x00, 0x00, 0x00, 
  0x00, 0x00, 0x00, 0x00, 0x00, 0x00, 0x00, 0x00, 0x00, 0x00, 0x00, 0x00, 
  0x00, 0x00, 0x00, 0x00, 0x00, 0x00, 0x00, 0x00, 0x00, 0x00, 0x00, 0x00, 
  0x00, 0x00, 0x00, 0x00, 0x00, 0x00, 0x00, 0x00, 0x00, 0x00, 0x00, 0x00, 
  0x00, 0x00, 0x00, 0x00, 0x00, 0x00, 0x00, 0x00, 0x00, 0x00, 0x00, 0x00, 
  0x00, 0x00, 0x00, 0x00, 0x08, 0x00, 0x00, 0x00, 0x99, 0x2e, 0x11, 0x39, 
  0xf6, 0xcf, 0x35, 0x39, 0x4b, 0x45, 0x82, 0x39, 0x86, 0xd6, 0x12, 0x39, 
  0xd9, 0x0a, 0x30, 0x39, 0xa9, 0x14, 0x31, 0x39, 0x8a, 0x56, 0xfe, 0x38, 
  0x2a, 0x8b, 0x05, 0x39, 0x13, 0x00, 0x00, 0x00, 0x74, 0x66, 0x6c, 0x2e, 
  0x70, 0x73, 0x65, 0x75, 0x64, 0x6f, 0x5f, 0x71, 0x63, 0x6f, 0x6e, 0x73, 
  0x74, 0x31, 0x34, 0x00, 0x01, 0x00, 0x00, 0x00, 0x08, 0x00, 0x00, 0x00, 
  0xd2, 0xee, 0xff, 0xff, 0x00, 0x00, 0x00, 0x01, 0x14, 0x00, 0x00, 0x00, 
  0xe8, 0x00, 0x00, 0x00, 0x10, 0x00, 0x00, 0x00, 0x00, 0x00, 0x00, 0x09, 
  0xf4, 0x00, 0x00, 0x00, 0x4c, 0xee, 0xff, 0xff, 0x08, 0x00, 0x00, 0x00, 
  0x8c, 0x00, 0x00, 0x00, 0x10, 0x00, 0x00, 0x00, 0x00, 0x00, 0x00, 0x00, 
  0x00, 0x00, 0x00, 0x00, 0x00, 0x00, 0x00, 0x00, 0x00, 0x00, 0x00, 0x00, 
  0x00, 0x00, 0x00, 0x00, 0x00, 0x00, 0x00, 0x00, 0x00, 0x00, 0x00, 0x00, 
  0x00, 0x00, 0x00, 0x00, 0x00, 0x00, 0x00, 0x00, 0x00, 0x00, 0x00, 0x00, 
  0x00, 0x00, 0x00, 0x00, 0x00, 0x00, 0x00, 0x00, 0x00, 0x00, 0x00, 0x00, 
  0x00, 0x00, 0x00, 0x00, 0x00, 0x00, 0x00, 0x00, 0x00, 0x00, 0x00, 0x00, 
  0x00, 0x00, 0x00, 0x00, 0x00, 0x00, 0x00, 0x00, 0x00, 0x00, 0x00, 0x00, 
  0x00, 0x00, 0x00, 0x00, 0x00, 0x00, 0x00, 0x00, 0x00, 0x00, 0x00, 0x00, 
  0x00, 0x00, 0x00, 0x00, 0x00, 0x00, 0x00, 0x00, 0x00, 0x00, 0x00, 0x00, 
  0x00, 0x00, 0x00, 0x00, 0x00, 0x00, 0x00, 0x00, 0x00, 0x00, 0x00, 0x00, 
  0x00, 0x00, 0x00, 0x00, 0x00, 0x00, 0x00, 0x00, 0x00, 0x00, 0x00, 0x00, 
  0x00, 0x00, 0x00, 0x00, 0x00, 0x00, 0x00, 0x00, 0x10, 0x00, 0x00, 0x00, 
  0xf4, 0xc8, 0x77, 0x3b, 0xdb, 0x23, 0x9d, 0x3b, 0x61, 0x06, 0x62, 0x3b, 
  0x54, 0xe0, 0x66, 0x3b, 0x8a, 0xd0, 0x91, 0x3b, 0x84, 0x80, 0x85, 0x3b, 
  0x46, 0x52, 0x68, 0x3b, 0x78, 0xe9, 0x7a, 0x3b, 0x4e, 0x52, 0x88, 0x3b, 
  0x31, 0x5b, 0x27, 0x3b, 0x2d, 0x79, 0x83, 0x3b, 0x57, 0x05, 0x76, 0x3b, 
  0x8d, 0x0d, 0x7e, 0x3b, 0x99, 0xe3, 0x60, 0x3b, 0x68, 0xfa, 0x73, 0x3b, 
  0xaf, 0x02, 0x7b, 0x3b, 0x13, 0x00, 0x00, 0x00, 0x74, 0x66, 0x6c, 0x2e, 
  0x70, 0x73, 0x65, 0x75, 0x64, 0x6f, 0x5f, 0x71, 0x63, 0x6f, 0x6e, 0x73, 
  0x74, 0x31, 0x33, 0x00, 0x04, 0x00, 0x00, 0x00, 0x10, 0x00, 0x00, 0x00, 
  0x01, 0x00, 0x00, 0x00, 0x01, 0x00, 0x00, 0x00, 0x08, 0x00, 0x00, 0x00, 
  0xf2, 0xef, 0xff, 0xff, 0x00, 0x00, 0x00, 0x01, 0x14, 0x00, 0x00, 0x00, 
  0xe4, 0x00, 0x00, 0x00, 0x0f, 0x00, 0x00, 0x00, 0x00, 0x00, 0x00, 0x02, 
  0xf0, 0x00, 0x00, 0x00, 0x6c, 0xef, 0xff, 0xff, 0x08, 0x00, 0x00, 0x00, 
  0x88, 0x00, 0x00, 0x00, 0x10, 0x00, 0x00, 0x00, 0x00, 0x00, 0x00, 0x00, 
  0x00, 0x00, 0x00, 0x00, 0x00, 0x00, 0x00, 0x00, 0x00, 0x00, 0x00, 0x00, 
  0x00, 0x00, 0x00, 0x00, 0x00, 0x00, 0x00, 0x00, 0x00, 0x00, 0x00, 0x00, 
  0x00, 0x00, 0x00, 0x00, 0x00, 0x00, 0x00, 0x00, 0x00, 0x00, 0x00, 0x00, 
  0x00, 0x00, 0x00, 0x00, 0x00, 0x00, 0x00, 0x00, 0x00, 0x00, 0x00, 0x00, 
  0x00, 0x00, 0x00, 0x00, 0x00, 0x00, 0x00, 0x00, 0x00, 0x00, 0x00, 0x00, 
  0x00, 0x00, 0x00, 0x00, 0x00, 0x00, 0x00, 0x00, 0x00, 0x00, 0x00, 0x00, 
  0x00, 0x00, 0x00, 0x00, 0x00, 0x00, 0x00, 0x00, 0x00, 0x00, 0x00, 0x00, 
  0x00, 0x00, 0x00, 0x00, 0x00, 0x00, 0x00, 0x00, 0x00, 0x00, 0x00, 0x00, 
  0x00, 0x00, 0x00, 0x00, 0x00, 0x00, 0x00, 0x00, 0x00, 0x00, 0x00, 0x00, 
  0x00, 0x00, 0x00, 0x00, 0x00, 0x00, 0x00, 0x00, 0x00, 0x00, 0x00, 0x00, 
  0x00, 0x00, 0x00, 0x00, 0x10, 0x00, 0x00, 0x00, 0xe0, 0x87, 0x82, 0x39, 
  0x4d, 0x8f, 0xa5, 0x39, 0xb2, 0x22, 0x6e, 0x39, 0x31, 0x3f, 0x73, 0x39, 
  0xa3, 0xa0, 0x99, 0x39, 0xb9, 0xa7, 0x8c, 0x39, 0xf5, 0xc4, 0x74, 0x39, 
  0x94, 0x2d, 0x84, 0x39, 0x30, 0xa0, 0x8f, 0x39, 0xc4, 0x52, 0x30, 0x39, 
  0x8f, 0x84, 0x8a, 0x39, 0xf8, 0x99, 0x81, 0x39, 0x29, 0xd5, 0x85, 0x39, 
  0x56, 0xf0, 0x6c, 0x39, 0x7e, 0x86, 0x80, 0x39, 0xdc, 0x3a, 0x84, 0x39, 
  0x13, 0x00, 0x00, 0x00, 0x74, 0x66, 0x6c, 0x2e, 0x70, 0x73, 0x65, 0x75, 
  0x64, 0x6f, 0x5f, 0x71, 0x63, 0x6f, 0x6e, 0x73, 0x74, 0x31, 0x32, 0x00, 
  0x01, 0x00, 0x00, 0x00, 0x10, 0x00, 0x00, 0x00, 0x02, 0xf1, 0xff, 0xff, 
  0x00, 0x00, 0x00, 0x01, 0x14, 0x00, 0x00, 0x00, 0x34, 0x00, 0x00, 0x00, 
  0x0e, 0x00, 0x00, 0x00, 0x00, 0x00, 0x00, 0x09, 0x40, 0x00, 0x00, 0x00, 
  0x7c, 0xf0, 0xff, 0xff, 0x08, 0x00, 0x00, 0x00, 0x14, 0x00, 0x00, 0x00, 
  0x01, 0x00, 0x00, 0x00, 0x80, 0xff, 0xff, 0xff, 0xff, 0xff, 0xff, 0xff, 
  0x00, 0x00, 0x00, 0x00, 0x01, 0x00, 0x00, 0x00, 0xee, 0x81, 0xd6, 0x3c, 
  0x13, 0x00, 0x00, 0x00, 0x74, 0x66, 0x6c, 0x2e, 0x70, 0x73, 0x65, 0x75, 
  0x64, 0x6f, 0x5f, 0x71, 0x63, 0x6f, 0x6e, 0x73, 0x74, 0x31, 0x31, 0x00, 
  0x01, 0x00, 0x00, 0x00, 0x10, 0x00, 0x00, 0x00, 0x62, 0xf1, 0xff, 0xff, 
  0x00, 0x00, 0x00, 0x01, 0x14, 0x00, 0x00, 0x00, 0x34, 0x00, 0x00, 0x00, 
  0x0d, 0x00, 0x00, 0x00, 0x00, 0x00, 0x00, 0x09, 0x40, 0x00, 0x00, 0x00, 
  0xdc, 0xf0, 0xff, 0xff, 0x08, 0x00, 0x00, 0x00, 0x14, 0x00, 0x00, 0x00, 
  0x01, 0x00, 0x00, 0x00, 0x7f, 0x00, 0x00, 0x00, 0x00, 0x00, 0x00, 0x00, 
  0x00, 0x00, 0x00, 0x00, 0x01, 0x00, 0x00, 0x00, 0x47, 0x47, 0x59, 0x3b, 
  0x13, 0x00, 0x00, 0x00, 0x74, 0x66, 0x6c, 0x2e, 0x70, 0x73, 0x65, 0x75, 
  0x64, 0x6f, 0x5f, 0x71, 0x63, 0x6f, 0x6e, 0x73, 0x74, 0x31, 0x30, 0x00, 
  0x01, 0x00, 0x00, 0x00, 0x10, 0x00, 0x00, 0x00, 0xc2, 0xf1, 0xff, 0xff, 
  0x00, 0x00, 0x00, 0x01, 0x28, 0x00, 0x00, 0x00, 0x00, 0x01, 0x00, 0x00, 
  0x0c, 0x00, 0x00, 0x00, 0x00, 0x00, 0x00, 0x09, 0x0c, 0x01, 0x00, 0x00, 
  0x00, 0x00, 0x12, 0x00, 0x10, 0x00, 0x00, 0x00, 0x00, 0x00, 0x0c, 0x00, 
  0x08, 0x00, 0x00, 0x00, 0x00, 0x00, 0x04, 0x00, 0x12, 0x00, 0x00, 0x00, 
  0x03, 0x00, 0x00, 0x00, 0x08, 0x00, 0x00, 0x00, 0x8c, 0x00, 0x00, 0x00, 
  0x10, 0x00, 0x00, 0x00, 0x00, 0x00, 0x00, 0x00, 0x00, 0x00, 0x00, 0x00, 
  0x00, 0x00, 0x00, 0x00, 0x00, 0x00, 0x00, 0x00, 0x00, 0x00, 0x00, 0x00, 
  0x00, 0x00, 0x00, 0x00, 0x00, 0x00, 0x00, 0x00, 0x00, 0x00, 0x00, 0x00, 
  0x00, 0x00, 0x00, 0x00, 0x00, 0x00, 0x00, 0x00, 0x00, 0x00, 0x00, 0x00, 
  0x00, 0x00, 0x00, 0x00, 0x00, 0x00, 0x00, 0x00, 0x00, 0x00, 0x00, 0x00, 
  0x00, 0x00, 0x00, 0x00, 0x00, 0x00, 0x00, 0x00, 0x00, 0x00, 0x00, 0x00, 
  0x00, 0x00, 0x00, 0x00, 0x00, 0x00, 0x00, 0x00, 0x00, 0x00, 0x00, 0x00, 
  0x00, 0x00, 0x00, 0x00, 0x00, 0x00, 0x00, 0x00, 0x00, 0x00, 0x00, 0x00, 
  0x00, 0x00, 0x00, 0x00, 0x00, 0x00, 0x00, 0x00, 0x00, 0x00, 0x00, 0x00, 
  0x00, 0x00, 0x00, 0x00, 0x00, 0x00, 0x00, 0x00, 0x00, 0x00, 0x00, 0x00, 
  0x00, 0x00, 0x00, 0x00, 0x00, 0x00, 0x00, 0x00, 0x00, 0x00, 0x00, 0x00, 
  0x00, 0x00, 0x00, 0x00, 0x10, 0x00, 0x00, 0x00, 0x8c, 0xa2, 0xb6, 0x3a, 
  0x4e, 0xcd, 0xb4, 0x3a, 0x13, 0x27, 0xd4, 0x3a, 0x0d, 0x9d, 0xe0, 0x3a, 
  0x6f, 0x75, 0xb3, 0x3a, 0x15, 0xd8, 0x05, 0x3b, 0x9e, 0x95, 0xa6, 0x3a, 
  0x30, 0xd7, 0xda, 0x3a, 0xb6, 0x68, 0x8e, 0x3a, 0xf3, 0x41, 0xc6, 0x3a, 
  0xd1, 0x1e, 0xb2, 0x3a, 0xc3, 0x98, 0x9a, 0x3a, 0xca, 0x65, 0xc2, 0x3a, 
  0x7d, 0x10, 0xde, 0x3a, 0xf7, 0x61, 0xb1, 0x3a, 0x19, 0x98, 0xc8, 0x3a, 
  0x12, 0x00, 0x00, 0x00, 0x74, 0x66, 0x6c, 0x2e, 0x70, 0x73, 0x65, 0x75, 
  0x64, 0x6f, 0x5f, 0x71, 0x63, 0x6f, 0x6e, 0x73, 0x74, 0x39, 0x00, 0x00, 
  0x04, 0x00, 0x00, 0x00, 0x01, 0x00, 0x00, 0x00, 0x03, 0x00, 0x00, 0x00, 
  0x03, 0x00, 0x00, 0x00, 0x10, 0x00, 0x00, 0x00, 0xfa, 0xf2, 0xff, 0xff, 
  0x00, 0x00, 0x00, 0x01, 0x14, 0x00, 0x00, 0x00, 0xe4, 0x00, 0x00, 0x00, 
  0x0b, 0x00, 0x00, 0x00, 0x00, 0x00, 0x00, 0x02, 0xf0, 0x00, 0x00, 0x00, 
  0x74, 0xf2, 0xff, 0xff, 0x08, 0x00, 0x00, 0x00, 0x88, 0x00, 0x00, 0x00, 
  0x10, 0x00, 0x00, 0x00, 0x00, 0x00, 0x00, 0x00, 0x00, 0x00, 0x00, 0x00, 
  0x00, 0x00, 0x00, 0x00, 0x00, 0x00, 0x00, 0x00, 0x00, 0x00, 0x00, 0x00, 
  0x00, 0x00, 0x00, 0x00, 0x00, 0x00, 0x00, 0x00, 0x00, 0x00, 0x00, 0x00, 
  0x00, 0x00, 0x00, 0x00, 0x00, 0x00, 0x00, 0x00, 0x00, 0x00, 0x00, 0x00, 
  0x00, 0x00, 0x00, 0x00, 0x00, 0x00, 0x00, 0x00, 0x00, 0x00, 0x00, 0x00, 
  0x00, 0x00, 0x00, 0x00, 0x00, 0x00, 0x00, 0x00, 0x00, 0x00, 0x00, 0x00, 
  0x00, 0x00, 0x00, 0x00, 0x00, 0x00, 0x00, 0x00, 0x00, 0x00, 0x00, 0x00, 
  0x00, 0x00, 0x00, 0x00, 0x00, 0x00, 0x00, 0x00, 0x00, 0x00, 0x00, 0x00, 
  0x00, 0x00, 0x00, 0x00, 0x00, 0x00, 0x00, 0x00, 0x00, 0x00, 0x00, 0x00, 
  0x00, 0x00, 0x00, 0x00, 0x00, 0x00, 0x00, 0x00, 0x00, 0x00, 0x00, 0x00, 
  0x00, 0x00, 0x00, 0x00, 0x00, 0x00, 0x00, 0x00, 0x00, 0x00, 0x00, 0x00, 
  0x10, 0x00, 0x00, 0x00, 0x8c, 0xf7, 0xc9, 0x38, 0xa3, 0xf0, 0xc7, 0x38, 
  0xf0, 0x9b, 0xea, 0x38, 0x94, 0x63, 0xf8, 0x38, 0x5e, 0x74, 0xc6, 0x38, 
  0xf5, 0x02, 0x14, 0x39, 0xaf, 0x37, 0xb8, 0x38, 0x48, 0x01, 0xf2, 0x38, 
  0xae, 0x7b, 0x9d, 0x38, 0x4a, 0x3e, 0xdb, 0x38, 0x7c, 0xf9, 0xc4, 0x38, 
  0xfd, 0xf5, 0xaa, 0x38, 0x88, 0xf9, 0xd6, 0x38, 0xf1, 0x91, 0xf5, 0x38, 
  0xa4, 0x28, 0xc4, 0x38, 0xc1, 0xd3, 0xdd, 0x38, 0x12, 0x00, 0x00, 0x00, 
  0x74, 0x66, 0x6c, 0x2e, 0x70, 0x73, 0x65, 0x75, 0x64, 0x6f, 0x5f, 0x71, 
  0x63, 0x6f, 0x6e, 0x73, 0x74, 0x38, 0x00, 0x00, 0x01, 0x00, 0x00, 0x00, 
  0x10, 0x00, 0x00, 0x00, 0x0a, 0xf4, 0xff, 0xff, 0x00, 0x00, 0x00, 0x01, 
  0x14, 0x00, 0x00, 0x00, 0xa8, 0x01, 0x00, 0x00, 0x0a, 0x00, 0x00, 0x00, 
  0x00, 0x00, 0x00, 0x09, 0xb4, 0x01, 0x00, 0x00, 0x84, 0xf3, 0xff, 0xff, 
  0x08, 0x00, 0x00, 0x00, 0x0c, 0x01, 0x00, 0x00, 0x20, 0x00, 0x00, 0x00, 
  0x00, 0x00, 0x00, 0x00, 0x00, 0x00, 0x00, 0x00, 0x00, 0x00, 0x00, 0x00, 
  0x00, 0x00, 0x00, 0x00, 0x00, 0x00, 0x00, 0x00, 0x00, 0x00, 0x00, 0x00, 
  0x00, 0x00, 0x00, 0x00, 0x00, 0x00, 0x00, 0x00, 0x00, 0x00, 0x00, 0x00, 
  0x00, 0x00, 0x00, 0x00, 0x00, 0x00, 0x00, 0x00, 0x00, 0x00, 0x00, 0x00, 
  0x00, 0x00, 0x00, 0x00, 0x00, 0x00, 0x00, 0x00, 0x00, 0x00, 0x00, 0x00, 
  0x00, 0x00, 0x00, 0x00, 0x00, 0x00, 0x00, 0x00, 0x00, 0x00, 0x00, 0x00, 
  0x00, 0x00, 0x00, 0x00, 0x00, 0x00, 0x00, 0x00, 0x00, 0x00, 0x00, 0x00, 
  0x00, 0x00, 0x00, 0x00, 0x00, 0x00, 0x00, 0x00, 0x00, 0x00, 0x00, 0x00, 
  0x00, 0x00, 0x00, 0x00, 0x00, 0x00, 0x00, 0x00, 0x00, 0x00, 0x00, 0x00, 
  0x00, 0x00, 0x00, 0x00, 0x00, 0x00, 0x00, 0x00, 0x00, 0x00, 0x00, 0x00, 
  0x00, 0x00, 0x00, 0x00, 0x00, 0x00, 0x00, 0x00, 0x00, 0x00, 0x00, 0x00, 
  0x00, 0x00, 0x00, 0x00, 0x00, 0x00, 0x00, 0x00, 0x00, 0x00, 0x00, 0x00, 
  0x00, 0x00, 0x00, 0x00, 0x00, 0x00, 0x00, 0x00, 0x00, 0x00, 0x00, 0x00, 
  0x00, 0x00, 0x00, 0x00, 0x00, 0x00, 0x00, 0x00, 0x00, 0x00, 0x00, 0x00, 
  0x00, 0x00, 0x00, 0x00, 0x00, 0x00, 0x00, 0x00, 0x00, 0x00, 0x00, 0x00, 
  0x00, 0x00, 0x00, 0x00, 0x00, 0x00, 0x00, 0x00, 0x00, 0x00, 0x00, 0x00, 
  0x00, 0x00, 0x00, 0x00, 0x00, 0x00, 0x00, 0x00, 0x00, 0x00, 0x00, 0x00, 
  0x00, 0x00, 0x00, 0x00, 0x00, 0x00, 0x00, 0x00, 0x00, 0x00, 0x00, 0x00, 
  0x00, 0x00, 0x00, 0x00, 0x00, 0x00, 0x00, 0x00, 0x00, 0x00, 0x00, 0x00, 
  0x00, 0x00, 0x00, 0x00, 0x00, 0x00, 0x00, 0x00, 0x00, 0x00, 0x00, 0x00, 
  0x00, 0x00, 0x00, 0x00, 0x00, 0x00, 0x00, 0x00, 0x00, 0x00, 0x00, 0x00, 
  0x00, 0x00, 0x00, 0x00, 0x00, 0x00, 0x00, 0x00, 0x20, 0x00, 0x00, 0x00, 
  0x10, 0x0a, 0x28, 0x3b, 0x78, 0xd8, 0x35, 0x3b, 0x93, 0xd4, 0x36, 0x3b, 
  0x6d, 0xc8, 0x4a, 0x3b, 0xc4, 0xc5, 0x1f, 0x3b, 0x20, 0x93, 0x62, 0x3b, 
  0xfb, 0x58, 0x31, 0x3b, 0x3f, 0xd1, 0x0d, 0x3b, 0xac, 0xd3, 0x2d, 0x3b, 
  0x5d, 0x71, 0x22, 0x3b, 0x87, 0x04, 0x29, 0x3b, 0xe1, 0xb3, 0x4a, 0x3b, 
  0xdc, 0x01, 0x46, 0x3b, 0xc2, 0x29, 0x34, 0x3b, 0x94, 0x8a, 0x56, 0x3b, 
  0x62, 0xc9, 0x39, 0x3b, 0x6e, 0xd9, 0x47, 0x3b, 0xf4, 0x21, 0x41, 0x3b, 
  0x65, 0xa2, 0x11, 0x3b, 0xe2, 0xab, 0x26, 0x3b, 0x78, 0x7c, 0x3f, 0x3b, 
  0x98, 0xab, 0x1e, 0x3b, 0x64, 0xe6, 0x32, 0x3b, 0xb0, 0xc9, 0x2b, 0x3b, 
  0xaa, 0x1c, 0x28, 0x3b, 0xb8, 0xa0, 0x2f, 0x3b, 0x79, 0x7b, 0x3d, 0x3b, 
  0x05, 0x80, 0x40, 0x3b, 0xb7, 0x0c, 0x24, 0x3b, 0x7a, 0x73, 0x2b, 0x3b, 
  0xbb, 0x6c, 0x3f, 0x3b, 0xc1, 0x0f, 0x31, 0x3b, 0x12, 0x00, 0x00, 0x00, 
  0x74, 0x66, 0x6c, 0x2e, 0x70, 0x73, 0x65, 0x75, 0x64, 0x6f, 0x5f, 0x71, 
  0x63, 0x6f, 0x6e, 0x73, 0x74, 0x37, 0x00, 0x00, 0x04, 0x00, 0x00, 0x00, 
  0x20, 0x00, 0x00, 0x00, 0x01, 0x00, 0x00, 0x00, 0x01, 0x00, 0x00, 0x00, 
  0x10, 0x00, 0x00, 0x00, 0xea, 0xf5, 0xff, 0xff, 0x00, 0x00, 0x00, 0x01, 
  0x14, 0x00, 0x00, 0x00, 0xa4, 0x01, 0x00, 0x00, 0x09, 0x00, 0x00, 0x00, 
  0x00, 0x00, 0x00, 0x02, 0xb0, 0x01, 0x00, 0x00, 0x64, 0xf5, 0xff, 0xff, 
  0x08, 0x00, 0x00, 0x00, 0x08, 0x01, 0x00, 0x00, 0x20, 0x00, 0x00, 0x00, 
  0x00, 0x00, 0x00, 0x00, 0x00, 0x00, 0x00, 0x00, 0x00, 0x00, 0x00, 0x00, 
  0x00, 0x00, 0x00, 0x00, 0x00, 0x00, 0x00, 0x00, 0x00, 0x00, 0x00, 0x00, 
  0x00, 0x00, 0x00, 0x00, 0x00, 0x00, 0x00, 0x00, 0x00, 0x00, 0x00, 0x00, 
  0x00, 0x00, 0x00, 0x00, 0x00, 0x00, 0x00, 0x00, 0x00, 0x00, 0x00, 0x00, 
  0x00, 0x00, 0x00, 0x00, 0x00, 0x00, 0x00, 0x00, 0x00, 0x00, 0x00, 0x00, 
  0x00, 0x00, 0x00, 0x00, 0x00, 0x00, 0x00, 0x00, 0x00, 0x00, 0x00, 0x00, 
  0x00, 0x00, 0x00, 0x00, 0x00, 0x00, 0x00, 0x00, 0x00, 0x00, 0x00, 0x00, 
  0x00, 0x00, 0x00, 0x00, 0x00, 0x00, 0x00, 0x00, 0x00, 0x00, 0x00, 0x00, 
  0x00, 0x00, 0x00, 0x00, 0x00, 0x00, 0x00, 0x00, 0x00, 0x00, 0x00, 0x00, 
  0x00, 0x00, 0x00, 0x00, 0x00, 0x00, 0x00, 0x00, 0x00, 0x00, 0x00, 0x00, 
  0x00, 0x00, 0x00, 0x00, 0x00, 0x00, 0x00, 0x00, 0x00, 0x00, 0x00, 0x00, 
  0x00, 0x00, 0x00, 0x00, 0x00, 0x00, 0x00, 0x00, 0x00, 0x00, 0x00, 0x00, 
  0x00, 0x00, 0x00, 0x00, 0x00, 0x00, 0x00, 0x00, 0x00, 0x00, 0x00, 0x00, 
  0x00, 0x00, 0x00, 0x00, 0x00, 0x00, 0x00, 0x00, 0x00, 0x00, 0x00, 0x00, 
  0x00, 0x00, 0x00, 0x00, 0x00, 0x00, 0x00, 0x00, 0x00, 0x00, 0x00, 0x00, 
  0x00, 0x00, 0x00, 0x00, 0x00, 0x00, 0x00, 0x00, 0x00, 0x00, 0x00, 0x00, 
  0x00, 0x00, 0x00, 0x00, 0x00, 0x00, 0x00, 0x00, 0x00, 0x00, 0x00, 0x00, 
  0x00, 0x00, 0x00, 0x00, 0x00, 0x00, 0x00, 0x00, 0x00, 0x00, 0x00, 0x00, 
  0x00, 0x00, 0x00, 0x00, 0x00, 0x00, 0x00, 0x00, 0x00, 0x00, 0x00, 0x00, 
  0x00, 0x00, 0x00, 0x00, 0x00, 0x00, 0x00, 0x00, 0x00, 0x00, 0x00, 0x00, 
  0x00, 0x00, 0x00, 0x00, 0x00, 0x00, 0x00, 0x00, 0x00, 0x00, 0x00, 0x00, 
  0x00, 0x00, 0x00, 0x00, 0x20, 0x00, 0x00, 0x00, 0x78, 0x62, 0x4b, 0x39, 
  0x4d, 0x18, 0x5c, 0x39, 0x6f, 0x49, 0x5d, 0x39, 0xab, 0x6f, 0x75, 0x39, 
  0x08, 0x61, 0x41, 0x39, 0xbe, 0x1d, 0x89, 0x39, 0x9c, 0xa6, 0x56, 0x39, 
  0xae, 0xa5, 0x2b, 0x39, 0xb8, 0x63, 0x52, 0x39, 0x6a, 0x9c, 0x44, 0x39, 
  0x9d, 0x91, 0x4c, 0x39, 0xcd, 0x56, 0x75, 0x39, 0xf3, 0xa7, 0x6f, 0x39, 
  0xfe, 0x0e, 0x5a, 0x39, 0x7d, 0xd5, 0x81, 0x39, 0x6e, 0xdd, 0x60, 0x39, 
  0xb5, 0xe2, 0x71, 0x39, 0x8f, 0xc1, 0x69, 0x39, 0x5c, 0x44, 0x30, 0x39, 
  0xa2, 0xba, 0x49, 0x39, 0x6b, 0xc3, 0x67, 0x39, 0x81, 0x0b, 0x40, 0x39, 
  0x9c, 0x87, 0x58, 0x39, 0xf1, 0xeb, 0x4f, 0x39, 0xfb, 0x78, 0x4b, 0x39, 
  0xbe, 0x91, 0x54, 0x39, 0x85, 0x56, 0x65, 0x39, 0x90, 0xfd, 0x68, 0x39, 
  0x4a, 0x8e, 0x46, 0x39, 0x98, 0x83, 0x4f, 0x39, 0x5e, 0xb0, 0x67, 0x39, 
  0xfa, 0x4d, 0x56, 0x39, 0x12, 0x00, 0x00, 0x00, 0x74, 0x66, 0x6c, 0x2e, 
  0x70, 0x73, 0x65, 0x75, 0x64, 0x6f, 0x5f, 0x71, 0x63, 0x6f, 0x6e, 0x73, 
  0x74, 0x36, 0x00, 0x00, 0x01, 0x00, 0x00, 0x00, 0x20, 0x00, 0x00, 0x00, 
  0xba, 0xf7, 0xff, 0xff, 0x00, 0x00, 0x00, 0x01, 0x14, 0x00, 0x00, 0x00, 
  0x34, 0x00, 0x00, 0x00, 0x08, 0x00, 0x00, 0x00, 0x00, 0x00, 0x00, 0x09, 
  0x40, 0x00, 0x00, 0x00, 0x34, 0xf7, 0xff, 0xff, 0x08, 0x00, 0x00, 0x00, 
  0x14, 0x00, 0x00, 0x00, 0x01, 0x00, 0x00, 0x00, 0x80, 0xff, 0xff, 0xff, 
  0xff, 0xff, 0xff, 0xff, 0x00, 0x00, 0x00, 0x00, 0x01, 0x00, 0x00, 0x00, 
  0x7e, 0xbc, 0xf4, 0x3c, 0x12, 0x00, 0x00, 0x00, 0x74, 0x66, 0x6c, 0x2e, 
  0x70, 0x73, 0x65, 0x75, 0x64, 0x6f, 0x5f, 0x71, 0x63, 0x6f, 0x6e, 0x73, 
  0x74, 0x35, 0x00, 0x00, 0x01, 0x00, 0x00, 0x00, 0x20, 0x00, 0x00, 0x00, 
  0x1a, 0xf8, 0xff, 0xff, 0x00, 0x00, 0x00, 0x01, 0x14, 0x00, 0x00, 0x00, 
  0x34, 0x00, 0x00, 0x00, 0x07, 0x00, 0x00, 0x00, 0x00, 0x00, 0x00, 0x09, 
  0x40, 0x00, 0x00, 0x00, 0x94, 0xf7, 0xff, 0xff, 0x08, 0x00, 0x00, 0x00, 
  0x14, 0x00, 0x00, 0x00, 0x01, 0x00, 0x00, 0x00, 0x7f, 0x00, 0x00, 0x00, 
  0x00, 0x00, 0x00, 0x00, 0x00, 0x00, 0x00, 0x00, 0x01, 0x00, 0x00, 0x00, 
  0x4b, 0xc4, 0x59, 0x3b, 0x12, 0x00, 0x00, 0x00, 0x74, 0x66, 0x6c, 0x2e, 
  0x70, 0x73, 0x65, 0x75, 0x64, 0x6f, 0x5f, 0x71, 0x63, 0x6f, 0x6e, 0x73, 
  0x74, 0x34, 0x00, 0x00, 0x01, 0x00, 0x00, 0x00, 0x20, 0x00, 0x00, 0x00, 
  0x7a, 0xf8, 0xff, 0xff, 0x00, 0x00, 0x00, 0x01, 0x14, 0x00, 0x00, 0x00, 
  0x28, 0x03, 0x00, 0x00, 0x06, 0x00, 0x00, 0x00, 0x00, 0x00, 0x00, 0x09, 
  0x34, 0x03, 0x00, 0x00, 0xf4, 0xf7, 0xff, 0xff, 0x08, 0x00, 0x00, 0x00, 
  0x0c, 0x02, 0x00, 0x00, 0x40, 0x00, 0x00, 0x00, 0x00, 0x00, 0x00, 0x00, 
  0x00, 0x00, 0x00, 0x00, 0x00, 0x00, 0x00, 0x00, 0x00, 0x00, 0x00, 0x00, 
  0x00, 0x00, 0x00, 0x00, 0x00, 0x00, 0x00, 0x00, 0x00, 0x00, 0x00, 0x00, 
  0x00, 0x00, 0x00, 0x00, 0x00, 0x00, 0x00, 0x00, 0x00, 0x00, 0x00, 0x00, 
  0x00, 0x00, 0x00, 0x00, 0x00, 0x00, 0x00, 0x00, 0x00, 0x00, 0x00, 0x00, 
  0x00, 0x00, 0x00, 0x00, 0x00, 0x00, 0x00, 0x00, 0x00, 0x00, 0x00, 0x00, 
  0x00, 0x00, 0x00, 0x00, 0x00, 0x00, 0x00, 0x00, 0x00, 0x00, 0x00, 0x00, 
  0x00, 0x00, 0x00, 0x00, 0x00, 0x00, 0x00, 0x00, 0x00, 0x00, 0x00, 0x00, 
  0x00, 0x00, 0x00, 0x00, 0x00, 0x00, 0x00, 0x00, 0x00, 0x00, 0x00, 0x00, 
  0x00, 0x00, 0x00, 0x00, 0x00, 0x00, 0x00, 0x00, 0x00, 0x00, 0x00, 0x00, 
  0x00, 0x00, 0x00, 0x00, 0x00, 0x00, 0x00, 0x00, 0x00, 0x00, 0x00, 0x00, 
  0x00, 0x00, 0x00, 0x00, 0x00, 0x00, 0x00, 0x00, 0x00, 0x00, 0x00, 0x00, 
  0x00, 0x00, 0x00, 0x00, 0x00, 0x00, 0x00, 0x00, 0x00, 0x00, 0x00, 0x00, 
  0x00, 0x00, 0x00, 0x00, 0x00, 0x00, 0x00, 0x00, 0x00, 0x00, 0x00, 0x00, 
  0x00, 0x00, 0x00, 0x00, 0x00, 0x00, 0x00, 0x00, 0x00, 0x00, 0x00, 0x00, 
  0x00, 0x00, 0x00, 0x00, 0x00, 0x00, 0x00, 0x00, 0x00, 0x00, 0x00, 0x00, 
  0x00, 0x00, 0x00, 0x00, 0x00, 0x00, 0x00, 0x00, 0x00, 0x00, 0x00, 0x00, 
  0x00, 0x00, 0x00, 0x00, 0x00, 0x00, 0x00, 0x00, 0x00, 0x00, 0x00, 0x00, 
  0x00, 0x00, 0x00, 0x00, 0x00, 0x00, 0x00, 0x00, 0x00, 0x00, 0x00, 0x00, 
  0x00, 0x00, 0x00, 0x00, 0x00, 0x00, 0x00, 0x00, 0x00, 0x00, 0x00, 0x00, 
  0x00, 0x00, 0x00, 0x00, 0x00, 0x00, 0x00, 0x00, 0x00, 0x00, 0x00, 0x00, 
  0x00, 0x00, 0x00, 0x00, 0x00, 0x00, 0x00, 0x00, 0x00, 0x00, 0x00, 0x00, 
  0x00, 0x00, 0x00, 0x00, 0x00, 0x00, 0x00, 0x00, 0x00, 0x00, 0x00, 0x00, 
  0x00, 0x00, 0x00, 0x00, 0x00, 0x00, 0x00, 0x00, 0x00, 0x00, 0x00, 0x00, 
  0x00, 0x00, 0x00, 0x00, 0x00, 0x00, 0x00, 0x00, 0x00, 0x00, 0x00, 0x00, 
  0x00, 0x00, 0x00, 0x00, 0x00, 0x00, 0x00, 0x00, 0x00, 0x00, 0x00, 0x00, 
  0x00, 0x00, 0x00, 0x00, 0x00, 0x00, 0x00, 0x00, 0x00, 0x00, 0x00, 0x00, 
  0x00, 0x00, 0x00, 0x00, 0x00, 0x00, 0x00, 0x00, 0x00, 0x00, 0x00, 0x00, 
  0x00, 0x00, 0x00, 0x00, 0x00, 0x00, 0x00, 0x00, 0x00, 0x00, 0x00, 0x00, 
  0x00, 0x00, 0x00, 0x00, 0x00, 0x00, 0x00, 0x00, 0x00, 0x00, 0x00, 0x00, 
  0x00, 0x00, 0x00, 0x00, 0x00, 0x00, 0x00, 0x00, 0x00, 0x00, 0x00, 0x00, 
  0x00, 0x00, 0x00, 0x00, 0x00, 0x00, 0x00, 0x00, 0x00, 0x00, 0x00, 0x00, 
  0x00, 0x00, 0x00, 0x00, 0x00, 0x00, 0x00, 0x00, 0x00, 0x00, 0x00, 0x00, 
  0x00, 0x00, 0x00, 0x00, 0x00, 0x00, 0x00, 0x00, 0x00, 0x00, 0x00, 0x00, 
  0x00, 0x00, 0x00, 0x00, 0x00, 0x00, 0x00, 0x00, 0x00, 0x00, 0x00, 0x00, 
  0x00, 0x00, 0x00, 0x00, 0x00, 0x00, 0x00, 0x00, 0x00, 0x00, 0x00, 0x00, 
  0x00, 0x00, 0x00, 0x00, 0x00, 0x00, 0x00, 0x00, 0x00, 0x00, 0x00, 0x00, 
  0x00, 0x00, 0x00, 0x00, 0x00, 0x00, 0x00, 0x00, 0x00, 0x00, 0x00, 0x00, 
  0x00, 0x00, 0x00, 0x00, 0x00, 0x00, 0x00, 0x00, 0x00, 0x00, 0x00, 0x00, 
  0x00, 0x00, 0x00, 0x00, 0x00, 0x00, 0x00, 0x00, 0x00, 0x00, 0x00, 0x00, 
  0x00, 0x00, 0x00, 0x00, 0x00, 0x00, 0x00, 0x00, 0x00, 0x00, 0x00, 0x00, 
  0x00, 0x00, 0x00, 0x00, 0x00, 0x00, 0x00, 0x00, 0x00, 0x00, 0x00, 0x00, 
  0x00, 0x00, 0x00, 0x00, 0x00, 0x00, 0x00, 0x00, 0x00, 0x00, 0x00, 0x00, 
  0x00, 0x00, 0x00, 0x00, 0x00, 0x00, 0x00, 0x00, 0x40, 0x00, 0x00, 0x00, 
  0x08, 0x0d, 0x10, 0x3b, 0x05, 0x5e, 0x20, 0x3b, 0x2c, 0xe3, 0x08, 0x3b, 
  0x14, 0x88, 0x04, 0x3b, 0x3c, 0x03, 0x05, 0x3b, 0x02, 0x51, 0x02, 0x3b, 
  0x3d, 0x0c, 0x07, 0x3b, 0x70, 0x46, 0x13, 0x3b, 0x94, 0x97, 0x1e, 0x3b, 
  0x52, 0xfe, 0xf3, 0x3a, 0xe9, 0x92, 0x0d, 0x3b, 0x50, 0x08, 0x12, 0x3b, 
  0x22, 0xac, 0x1f, 0x3b, 0x6c, 0x2b, 0x0c, 0x3b, 0xfe, 0x99, 0x01, 0x3b, 
  0xeb, 0x00, 0xf9, 0x3a, 0x09, 0x5a, 0x11, 0x3b, 0x8b, 0xd6, 0x1b, 0x3b, 
  0x47, 0x3b, 0x0e, 0x3b, 0xa7, 0x9f, 0x03, 0x3b, 0x92, 0xfa, 0x07, 0x3b, 
  0xf3, 0x76, 0x0b, 0x3b, 0x2d, 0x69, 0x15, 0x3b, 0x27, 0x28, 0x0d, 0x3b, 
  0x1e, 0x90, 0x2c, 0x3b, 0x09, 0xc6, 0x2a, 0x3b, 0x4c, 0x1c, 0xf6, 0x3a, 
  0x03, 0xe5, 0x0c, 0x3b, 0x0c, 0x4a, 0x19, 0x3b, 0xdf, 0x91, 0x07, 0x3b, 
  0xed, 0xfe, 0x19, 0x3b, 0x9c, 0x92, 0x0e, 0x3b, 0xc1, 0x39, 0x09, 0x3b, 
  0xbc, 0x8d, 0x0a, 0x3b, 0x38, 0xdb, 0x02, 0x3b, 0x9f, 0x64, 0x21, 0x3b, 
  0x0e, 0xe5, 0x07, 0x3b, 0x3c, 0xfa, 0x0a, 0x3b, 0x4b, 0x21, 0x11, 0x3b, 
  0x80, 0x7c, 0x08, 0x3b, 0x17, 0xd8, 0x02, 0x3b, 0xe7, 0x9a, 0xe8, 0x3a, 
  0xc3, 0x87, 0x04, 0x3b, 0x8e, 0xbd, 0xea, 0x3a, 0xef, 0xfd, 0xfb, 0x3a, 
  0x5c, 0x02, 0x19, 0x3b, 0x26, 0x56, 0x12, 0x3b, 0x65, 0x35, 0x02, 0x3b, 
  0x3f, 0x4a, 0xec, 0x3a, 0x53, 0x49, 0x0d, 0x3b, 0x5a, 0x2a, 0x20, 0x3b, 
  0xc1, 0xc6, 0x1e, 0x3b, 0x33, 0xe1, 0x10, 0x3b, 0x3c, 0x9f, 0x14, 0x3b, 
  0x08, 0x37, 0x18, 0x3b, 0x5f, 0x6a, 0x16, 0x3b, 0xbe, 0x95, 0x12, 0x3b, 
  0x77, 0x70, 0xff, 0x3a, 0x55, 0xda, 0xea, 0x3a, 0xee, 0x67, 0x11, 0x3b, 
  0xfd, 0x68, 0x0e, 0x3b, 0xee, 0xe6, 0xf6, 0x3a, 0x1b, 0xc6, 0x16, 0x3b, 
  0x70, 0xdd, 0x12, 0x3b, 0x12, 0x00, 0x00, 0x00, 0x74, 0x66, 0x6c, 0x2e, 
  0x70, 0x73, 0x65, 0x75, 0x64, 0x6f, 0x5f, 0x71, 0x63, 0x6f, 0x6e, 0x73, 
  0x74, 0x33, 0x00, 0x00, 0x02, 0x00, 0x00, 0x00, 0x40, 0x00, 0x00, 0x00, 
  0x20, 0x00, 0x00, 0x00, 0xd2, 0xfb, 0xff, 0xff, 0x00, 0x00, 0x00, 0x01, 
  0x14, 0x00, 0x00, 0x00, 0x24, 0x03, 0x00, 0x00, 0x05, 0x00, 0x00, 0x00, 
  0x00, 0x00, 0x00, 0x02, 0x30, 0x03, 0x00, 0x00, 0x4c, 0xfb, 0xff, 0xff, 
  0x08, 0x00, 0x00, 0x00, 0x08, 0x02, 0x00, 0x00, 0x40, 0x00, 0x00, 0x00, 
  0x00, 0x00, 0x00, 0x00, 0x00, 0x00, 0x00, 0x00, 0x00, 0x00, 0x00, 0x00, 
  0x00, 0x00, 0x00, 0x00, 0x00, 0x00, 0x00, 0x00, 0x00, 0x00, 0x00, 0x00, 
  0x00, 0x00, 0x00, 0x00, 0x00, 0x00, 0x00, 0x00, 0x00, 0x00, 0x00, 0x00, 
  0x00, 0x00, 0x00, 0x00, 0x00, 0x00, 0x00, 0x00, 0x00, 0x00, 0x00, 0x00, 
  0x00, 0x00, 0x00, 0x00, 0x00, 0x00, 0x00, 0x00, 0x00, 0x00, 0x00, 0x00, 
  0x00, 0x00, 0x00, 0x00, 0x00, 0x00, 0x00, 0x00, 0x00, 0x00, 0x00, 0x00, 
  0x00, 0x00, 0x00, 0x00, 0x00, 0x00, 0x00, 0x00, 0x00, 0x00, 0x00, 0x00, 
  0x00, 0x00, 0x00, 0x00, 0x00, 0x00, 0x00, 0x00, 0x00, 0x00, 0x00, 0x00, 
  0x00, 0x00, 0x00, 0x00, 0x00, 0x00, 0x00, 0x00, 0x00, 0x00, 0x00, 0x00, 
  0x00, 0x00, 0x00, 0x00, 0x00, 0x00, 0x00, 0x00, 0x00, 0x00, 0x00, 0x00, 
  0x00, 0x00, 0x00, 0x00, 0x00, 0x00, 0x00, 0x00, 0x00, 0x00, 0x00, 0x00, 
  0x00, 0x00, 0x00, 0x00, 0x00, 0x00, 0x00, 0x00, 0x00, 0x00, 0x00, 0x00, 
  0x00, 0x00, 0x00, 0x00, 0x00, 0x00, 0x00, 0x00, 0x00, 0x00, 0x00, 0x00, 
  0x00, 0x00, 0x00, 0x00, 0x00, 0x00, 0x00, 0x00, 0x00, 0x00, 0x00, 0x00, 
  0x00, 0x00, 0x00, 0x00, 0x00, 0x00, 0x00, 0x00, 0x00, 0x00, 0x00, 0x00, 
  0x00, 0x00, 0x00, 0x00, 0x00, 0x00, 0x00, 0x00, 0x00, 0x00, 0x00, 0x00, 
  0x00, 0x00, 0x00, 0x00, 0x00, 0x00, 0x00, 0x00, 0x00, 0x00, 0x00, 0x00, 
  0x00, 0x00, 0x00, 0x00, 0x00, 0x00, 0x00, 0x00, 0x00, 0x00, 0x00, 0x00, 
  0x00, 0x00, 0x00, 0x00, 0x00, 0x00, 0x00, 0x00, 0x00, 0x00, 0x00, 0x00, 
  0x00, 0x00, 0x00, 0x00, 0x00, 0x00, 0x00, 0x00, 0x00, 0x00, 0x00, 0x00, 
  0x00, 0x00, 0x00, 0x00, 0x00, 0x00, 0x00, 0x00, 0x00, 0x00, 0x00, 0x00, 
  0x00, 0x00, 0x00, 0x00, 0x00, 0x00, 0x00, 0x00, 0x00, 0x00, 0x00, 0x00, 
  0x00, 0x00, 0x00, 0x00, 0x00, 0x00, 0x00, 0x00, 0x00, 0x00, 0x00, 0x00, 
  0x00, 0x00, 0x00, 0x00, 0x00, 0x00, 0x00, 0x00, 0x00, 0x00, 0x00, 0x00, 
  0x00, 0x00, 0x00, 0x00, 0x00, 0x00, 0x00, 0x00, 0x00, 0x00, 0x00, 0x00, 
  0x00, 0x00, 0x00, 0x00, 0x00, 0x00, 0x00, 0x00, 0x00, 0x00, 0x00, 0x00, 
  0x00, 0x00, 0x00, 0x00, 0x00, 0x00, 0x00, 0x00, 0x00, 0x00, 0x00, 0x00, 
  0x00, 0x00, 0x00, 0x00, 0x00, 0x00, 0x00, 0x00, 0x00, 0x00, 0x00, 0x00, 
  0x00, 0x00, 0x00, 0x00, 0x00, 0x00, 0x00, 0x00, 0x00, 0x00, 0x00, 0x00, 
  0x00, 0x00, 0x00, 0x00, 0x00, 0x00, 0x00, 0x00, 0x00, 0x00, 0x00, 0x00, 
  0x00, 0x00, 0x00, 0x00, 0x00, 0x00, 0x00, 0x00, 0x00, 0x00, 0x00, 0x00, 
  0x00, 0x00, 0x00, 0x00, 0x00, 0x00, 0x00, 0x00, 0x00, 0x00, 0x00, 0x00, 
  0x00, 0x00, 0x00, 0x00, 0x00, 0x00, 0x00, 0x00, 0x00, 0x00, 0x00, 0x00, 
  0x00, 0x00, 0x00, 0x00, 0x00, 0x00, 0x00, 0x00, 0x00, 0x00, 0x00, 0x00, 
  0x00, 0x00, 0x00, 0x00, 0x00, 0x00, 0x00, 0x00, 0x00, 0x00, 0x00, 0x00, 
  0x00, 0x00, 0x00, 0x00, 0x00, 0x00, 0x00, 0x00, 0x00, 0x00, 0x00, 0x00, 
  0x00, 0x00, 0x00, 0x00, 0x00, 0x00, 0x00, 0x00, 0x00, 0x00, 0x00, 0x00, 
  0x00, 0x00, 0x00, 0x00, 0x00, 0x00, 0x00, 0x00, 0x00, 0x00, 0x00, 0x00, 
  0x00, 0x00, 0x00, 0x00, 0x00, 0x00, 0x00, 0x00, 0x00, 0x00, 0x00, 0x00, 
  0x00, 0x00, 0x00, 0x00, 0x00, 0x00, 0x00, 0x00, 0x00, 0x00, 0x00, 0x00, 
  0x00, 0x00, 0x00, 0x00, 0x00, 0x00, 0x00, 0x00, 0x00, 0x00, 0x00, 0x00, 
  0x00, 0x00, 0x00, 0x00, 0x00, 0x00, 0x00, 0x00, 0x00, 0x00, 0x00, 0x00, 
  0x00, 0x00, 0x00, 0x00, 0x00, 0x00, 0x00, 0x00, 0x40, 0x00, 0x00, 0x00, 
  0x51, 0xeb, 0x91, 0x37, 0x7b, 0x72, 0xa2, 0x37, 0xac, 0xa9, 0x8a, 0x37, 
  0x1e, 0x40, 0x86, 0x37, 0xdf, 0xbc, 0x86, 0x37, 0xb1, 0x01, 0x84, 0x37, 
  0xa2, 0xcc, 0x88, 0x37, 0x6e, 0x2f, 0x95, 0x37, 0x25, 0xa6, 0xa0, 0x37, 
  0x71, 0x28, 0x77, 0x37, 0xf9, 0x68, 0x8f, 0x37, 0x2d, 0xed, 0x93, 0x37, 
  0x49, 0xbe, 0xa1, 0x37, 0xd2, 0xfc, 0x8d, 0x37, 0x4d, 0x48, 0x83, 0x37, 
  0xac, 0x3b, 0x7c, 0x37, 0xa4, 0x3c, 0x93, 0x37, 0xf7, 0xdb, 0x9d, 0x37, 
  0x86, 0x13, 0x90, 0x37, 0xad, 0x54, 0x85, 0x37, 0x0e, 0xbe, 0x89, 0x37, 
  0x02, 0x46, 0x8d, 0x37, 0x42, 0x59, 0x97, 0x37, 0xd4, 0xfc, 0x8e, 0x37, 
  0x12, 0xcd, 0xae, 0x37, 0x0c, 0xfd, 0xac, 0x37, 0x72, 0x4d, 0x79, 0x37, 
  0xd1, 0xb8, 0x8e, 0x37, 0x01, 0x47, 0x9b, 0x37, 0xff, 0x53, 0x89, 0x37, 
  0x3b, 0xfe, 0x9b, 0x37, 0xfd, 0x6b, 0x90, 0x37, 0x61, 0x01, 0x8b, 0x37, 
  0xc4, 0x59, 0x8c, 0x37, 0xb2, 0x8d, 0x84, 0x37, 0x7d, 0x7c, 0xa3, 0x37, 
  0x42, 0xa8, 0x89, 0x37, 0xad, 0xc7, 0x8c, 0x37, 0x29, 0x03, 0x93, 0x37, 
  0xab, 0x41, 0x8a, 0x37, 0x86, 0x8a, 0x84, 0x37, 0x36, 0x9f, 0x6b, 0x37, 
  0xcc, 0x3f, 0x86, 0x37, 0xf4, 0xc8, 0x6d, 0x37, 0x9c, 0x42, 0x7f, 0x37, 
  0x63, 0xfe, 0x9a, 0x37, 0x06, 0x3c, 0x94, 0x37, 0xb8, 0xe5, 0x83, 0x37, 
  0xca, 0x5a, 0x6f, 0x37, 0x6e, 0x1e, 0x8f, 0x37, 0x24, 0x3e, 0xa2, 0x37, 
  0xee, 0xd5, 0xa0, 0x37, 0x3c, 0xc2, 0x92, 0x37, 0xb2, 0x8c, 0x96, 0x37, 
  0x6c, 0x30, 0x9a, 0x37, 0xca, 0x5d, 0x98, 0x37, 0x71, 0x7c, 0x94, 0x37, 
  0x4b, 0x60, 0x81, 0x37, 0x1a, 0xe6, 0x6d, 0x37, 0xb7, 0x4a, 0x93, 0x37, 
  0xd3, 0x41, 0x90, 0x37, 0xb5, 0x1a, 0x7a, 0x37, 0xb6, 0xba, 0x98, 0x37, 
  0x11, 0xc5, 0x94, 0x37, 0x12, 0x00, 0x00, 0x00, 0x74, 0x66, 0x6c, 0x2e, 
  0x70, 0x73, 0x65, 0x75, 0x64, 0x6f, 0x5f, 0x71, 0x63, 0x6f, 0x6e, 0x73, 
  0x74, 0x32, 0x00, 0x00, 0x01, 0x00, 0x00, 0x00, 0x40, 0x00, 0x00, 0x00, 
  0x22, 0xff, 0xff, 0xff, 0x00, 0x00, 0x00, 0x01, 0x14, 0x00, 0x00, 0x00, 
  0x40, 0x00, 0x00, 0x00, 0x04, 0x00, 0x00, 0x00, 0x00, 0x00, 0x00, 0x09, 
  0x4c, 0x00, 0x00, 0x00, 0x9c, 0xfe, 0xff, 0xff, 0x08, 0x00, 0x00, 0x00, 
  0x1c, 0x00, 0x00, 0x00, 0x02, 0x00, 0x00, 0x00, 0x00, 0x00, 0x00, 0x00, 
  0x00, 0x00, 0x00, 0x00, 0x00, 0x00, 0x00, 0x00, 0x00, 0x00, 0x00, 0x00, 
  0x00, 0x00, 0x00, 0x00, 0x02, 0x00, 0x00, 0x00, 0xfc, 0x47, 0x15, 0x3b, 
  0x10, 0x5e, 0x2f, 0x3b, 0x12, 0x00, 0x00, 0x00, 0x74, 0x66, 0x6c, 0x2e, 
  0x70, 0x73, 0x65, 0x75, 0x64, 0x6f, 0x5f, 0x71, 0x63, 0x6f, 0x6e, 0x73, 
  0x74, 0x31, 0x00, 0x00, 0x02, 0x00, 0x00, 0x00, 0x02, 0x00, 0x00, 0x00, 
  0x40, 0x00, 0x00, 0x00, 0x92, 0xff, 0xff, 0xff, 0x00, 0x00, 0x00, 0x01, 
  0x14, 0x00, 0x00, 0x00, 0x40, 0x00, 0x00, 0x00, 0x03, 0x00, 0x00, 0x00, 
  0x00, 0x00, 0x00, 0x02, 0x4c, 0x00, 0x00, 0x00, 0x0c, 0xff, 0xff, 0xff, 
  0x08, 0x00, 0x00, 0x00, 0x1c, 0x00, 0x00, 0x00, 0x02, 0x00, 0x00, 0x00, 
  0x00, 0x00, 0x00, 0x00, 0x00, 0x00, 0x00, 0x00, 0x00, 0x00, 0x00, 0x00, 
  0x00, 0x00, 0x00, 0x00, 0x00, 0x00, 0x00, 0x00, 0x02, 0x00, 0x00, 0x00, 
  0xf0, 0x4e, 0x44, 0x37, 0xc5, 0x9c, 0x66, 0x37, 0x11, 0x00, 0x00, 0x00, 
  0x74, 0x66, 0x6c, 0x2e, 0x70, 0x73, 0x65, 0x75, 0x64, 0x6f, 0x5f, 0x71, 
  0x63, 0x6f, 0x6e, 0x73, 0x74, 0x00, 0x00, 0x00, 0x01, 0x00, 0x00, 0x00, 
  0x02, 0x00, 0x00, 0x00, 0x00, 0x00, 0x16, 0x00, 0x1c, 0x00, 0x18, 0x00, 
  0x17, 0x00, 0x10, 0x00, 0x0c, 0x00, 0x08, 0x00, 0x00, 0x00, 0x00, 0x00, 
  0x00, 0x00, 0x07, 0x00, 0x16, 0x00, 0x00, 0x00, 0x00, 0x00, 0x00, 0x01, 
  0x18, 0x00, 0x00, 0x00, 0x18, 0x00, 0x00, 0x00, 0x02, 0x00, 0x00, 0x00, 
  0x00, 0x00, 0x00, 0x02, 0x20, 0x00, 0x00, 0x00, 0x04, 0x00, 0x04, 0x00, 
  0x04, 0x00, 0x00, 0x00, 0x0e, 0x00, 0x00, 0x00, 0x61, 0x72, 0x69, 0x74, 
  0x68, 0x2e, 0x63, 0x6f, 0x6e, 0x73, 0x74, 0x61, 0x6e, 0x74, 0x00, 0x00, 
  0x01, 0x00, 0x00, 0x00, 0x02, 0x00, 0x00, 0x00, 0x00, 0x00, 0x16, 0x00, 
  0x20, 0x00, 0x1c, 0x00, 0x1b, 0x00, 0x14, 0x00, 0x10, 0x00, 0x0c, 0x00, 
  0x00, 0x00, 0x00, 0x00, 0x08, 0x00, 0x07, 0x00, 0x16, 0x00, 0x00, 0x00, 
  0x00, 0x00, 0x00, 0x01, 0x18, 0x00, 0x00, 0x00, 0x34, 0x00, 0x00, 0x00, 
  0x50, 0x00, 0x00, 0x00, 0x01, 0x00, 0x00, 0x00, 0x00, 0x00, 0x00, 0x09, 
  0x68, 0x00, 0x00, 0x00, 0x04, 0x00, 0x00, 0x00, 0xff, 0xff, 0xff, 0xff, 
  0x60, 0x00, 0x00, 0x00, 0x60, 0x00, 0x00, 0x00, 0x01, 0x00, 0x00, 0x00, 
  0x0c, 0x00, 0x0c, 0x00, 0x00, 0x00, 0x00, 0x00, 0x08, 0x00, 0x04, 0x00, 
  0x0c, 0x00, 0x00, 0x00, 0x08, 0x00, 0x00, 0x00, 0x10, 0x00, 0x00, 0x00, 
  0x01, 0x00, 0x00, 0x00, 0x80, 0xff, 0xff, 0xff, 0xff, 0xff, 0xff, 0xff, 
  0x01, 0x00, 0x00, 0x00, 0x37, 0x7d, 0x80, 0x3b, 0x1d, 0x00, 0x00, 0x00, 
  0x73, 0x65, 0x72, 0x76, 0x69, 0x6e, 0x67, 0x5f, 0x64, 0x65, 0x66, 0x61, 
  0x75, 0x6c, 0x74, 0x5f, 0x69, 0x6e, 0x70, 0x75, 0x74, 0x5f, 0x6c, 0x61, 
  0x79, 0x65, 0x72, 0x3a, 0x30, 0x00, 0x00, 0x00, 0x04, 0x00, 0x00, 0x00, 
  0x01, 0x00, 0x00, 0x00, 0x60, 0x00, 0x00, 0x00, 0x60, 0x00, 0x00, 0x00, 
  0x01, 0x00, 0x00, 0x00, 0x07, 0x00, 0x00, 0x00, 0x94, 0x00, 0x00, 0x00, 
  0x74, 0x00, 0x00, 0x00, 0x68, 0x00, 0x00, 0x00, 0x4c, 0x00, 0x00, 0x00, 
  0x2c, 0x00, 0x00, 0x00, 0x18, 0x00, 0x00, 0x00, 0x04, 0x00, 0x00, 0x00, 
  0x94, 0xff, 0xff, 0xff, 0x19, 0x00, 0x00, 0x00, 0x02, 0x00, 0x00, 0x00, 
  0x00, 0x00, 0x00, 0x19, 0xa4, 0xff, 0xff, 0xff, 0x09, 0x00, 0x00, 0x00, 
  0x04, 0x00, 0x00, 0x00, 0x00, 0x00, 0x00, 0x09, 0xb4, 0xff, 0xff, 0xff, 
  0x28, 0x00, 0x00, 0x00, 0x02, 0x00, 0x00, 0x00, 0x00, 0x00, 0x00, 0x28, 
  0x0c, 0x00, 0x0e, 0x00, 0x0d, 0x00, 0x00, 0x00, 0x08, 0x00, 0x04, 0x00, 
  0x0c, 0x00, 0x00, 0x00, 0x04, 0x00, 0x00, 0x00, 0x03, 0x00, 0x00, 0x00, 
  0x00, 0x04, 0x0a, 0x00, 0x08, 0x00, 0x00, 0x00, 0x00, 0x00, 0x04, 0x00, 
  0x0a, 0x00, 0x00, 0x00, 0x02, 0x00, 0x00, 0x00, 0xf0, 0xff, 0xff, 0xff, 
  0x12, 0x00, 0x00, 0x00, 0x02, 0x00, 0x00, 0x00, 0x00, 0x00, 0x00, 0x12, 
  0x0c, 0x00, 0x10, 0x00, 0x0f, 0x00, 0x00, 0x00, 0x08, 0x00, 0x04, 0x00, 
  0x0c, 0x00, 0x00, 0x00, 0x03, 0x00, 0x00, 0x00, 0x03, 0x00, 0x00, 0x00, 
  0x00, 0x00, 0x00, 0x03
  };
unsigned int cat_detect_model_data_len = 14368;
